/*
 * Copyright 2019 NXP
 * All rights reserved.
 *
 * SPDX-License-Identifier: BSD-3-Clause
 */

/* This file is generated by adt_train.py */

const char adt_model[] __ALIGNED(16) = {0x18, 0x0, 0x0, 0x0, 0x54, 0x46, 0x4c, 0x33, 0x0, 0x0, 0xe, 0x0, 0x18, 0x0, 0x4, 0x0, 0x8, 0x0, 0xc, 0x0, 0x10, 0x0, 0x14, 0x0, 0xe, 0x0, 0x0, 0x0, 0x3, 0x0, 0x0, 0x0, 0xa4, 0x16, 0x0, 0x0, 0xc, 0x0, 0x0, 0x0, 0x10, 0x0, 0x0, 0x0, 0x20, 0x0, 0x0, 0x0, 0x1, 0x0, 0x0, 0x0, 0xe8, 0x0, 0x0, 0x0, 0xf, 0x0, 0x0, 0x0, 0x54, 0x4f, 0x43, 0x4f, 0x20, 0x43, 0x6f, 0x6e, 0x76, 0x65, 0x72, 0x74, 0x65, 0x64, 0x2e, 0x0, 0x12, 0x0, 0x0, 0x0, 0xbc, 0x0, 0x0, 0x0, 0xb4, 0x0, 0x0, 0x0, 0xac, 0x0, 0x0, 0x0, 0xa0, 0x0, 0x0, 0x0, 0x8c, 0x0, 0x0, 0x0, 0x78, 0x0, 0x0, 0x0, 0x70, 0x0, 0x0, 0x0, 0x68, 0x0, 0x0, 0x0, 0x60, 0x0, 0x0, 0x0, 0x54, 0x0, 0x0, 0x0, 0x4c, 0x0, 0x0, 0x0, 0x44, 0x0, 0x0, 0x0, 0x3c, 0x0, 0x0, 0x0, 0x34, 0x0, 0x0, 0x0, 0x28, 0x0, 0x0, 0x0, 0x1c, 0x0, 0x0, 0x0, 0x10, 0x0, 0x0, 0x0, 0x4, 0x0, 0x0, 0x0, 0xa2, 0xff, 0xff, 0xff, 0x24, 0x1, 0x0, 0x0, 0xaa, 0xff, 0xff, 0xff, 0x78, 0x1, 0x0, 0x0, 0xb2, 0xff, 0xff, 0xff, 0xd8, 0x1, 0x0, 0x0, 0xba, 0xff, 0xff, 0xff, 0xc, 0x3, 0x0, 0x0, 0xfc, 0xe9, 0xff, 0xff, 0x0, 0xea, 0xff, 0xff, 0x4, 0xea, 0xff, 0xff, 0x8, 0xea, 0xff, 0xff, 0xd2, 0xff, 0xff, 0xff, 0x50, 0x4, 0x0, 0x0, 0x14, 0xea, 0xff, 0xff, 0x18, 0xea, 0xff, 0xff, 0x1c, 0xea, 0xff, 0xff, 0xf6, 0xff, 0xff, 0xff, 0xa4, 0x5, 0x0, 0x0, 0x0, 0x0, 0x6, 0x0, 0xa, 0x0, 0x4, 0x0, 0x6, 0x0, 0x0, 0x0, 0x5c, 0xd, 0x0, 0x0, 0x0, 0x0, 0x6, 0x0, 0x8, 0x0, 0x4, 0x0, 0x6, 0x0, 0x0, 0x0, 0x94, 0xf, 0x0, 0x0, 0x48, 0xea, 0xff, 0xff, 0x4c, 0xea, 0xff, 0xff, 0x50, 0xea, 0xff, 0xff, 0xc, 0x0, 0x14, 0x0, 0x4, 0x0, 0x8, 0x0, 0xc, 0x0, 0x10, 0x0, 0xc, 0x0, 0x0, 0x0, 0x20, 0x0, 0x0, 0x0, 0x14, 0x0, 0x0, 0x0, 0x8, 0x0, 0x0, 0x0, 0xc8, 0x13, 0x0, 0x0, 0x1, 0x0, 0x0, 0x0, 0xe, 0x0, 0x0, 0x0, 0x1, 0x0, 0x0, 0x0, 0x10, 0x0, 0x0, 0x0, 0x11, 0x0, 0x0, 0x0, 0x54, 0x4, 0x0, 0x0, 0x40, 0x2, 0x0, 0x0, 0x60, 0x3, 0x0, 0x0, 0xf0, 0x4, 0x0, 0x0, 0x20, 0x3, 0x0, 0x0, 0x8c, 0x0, 0x0, 0x0, 0xfc, 0x12, 0x0, 0x0, 0xa8, 0xc, 0x0, 0x0, 0x6c, 0x4, 0x0, 0x0, 0x20, 0x0, 0x0, 0x0, 0xd0, 0x2, 0x0, 0x0, 0xd0, 0x0, 0x0, 0x0, 0x90, 0x2, 0x0, 0x0, 0x6c, 0x3, 0x0, 0x0, 0x8c, 0x4, 0x0, 0x0, 0xd0, 0xe, 0x0, 0x0, 0x20, 0x13, 0x0, 0x0, 0xf2, 0xec, 0xff, 0xff, 0x10, 0x0, 0x0, 0x0, 0x11, 0x0, 0x0, 0x0, 0x10, 0x0, 0x0, 0x0, 0x24, 0x0, 0x0, 0x0, 0x1, 0x0, 0x0, 0x0, 0x8, 0x0, 0x0, 0x0, 0x13, 0x0, 0x0, 0x0, 0x64, 0x65, 0x6e, 0x73, 0x65, 0x5f, 0x33, 0x2f, 0x4d, 0x61, 0x74, 0x4d, 0x75, 0x6c, 0x5f, 0x62, 0x69, 0x61, 0x73, 0x0, 0x0, 0xeb, 0xff, 0xff, 0x20, 0x0, 0x0, 0x0, 0x2e, 0x15, 0xba, 0xbc, 0x62, 0xda, 0x81, 0x3e, 0x24, 0x41, 0x6d, 0xbe, 0xbc, 0x4e, 0x5b, 0x3e, 0x1a, 0x46, 0xfa, 0x3a, 0x2f, 0x1, 0xa3, 0xbd, 0xa6, 0x28, 0x1, 0x3e, 0xba, 0x53, 0x7b, 0x3e, 0x4e, 0xed, 0xff, 0xff, 0x10, 0x0, 0x0, 0x0, 0x10, 0x0, 0x0, 0x0, 0x10, 0x0, 0x0, 0x0, 0x24, 0x0, 0x0, 0x0, 0x1, 0x0, 0x0, 0x0, 0x8, 0x0, 0x0, 0x0, 0x13, 0x0, 0x0, 0x0, 0x64, 0x65, 0x6e, 0x73, 0x65, 0x5f, 0x32, 0x2f, 0x4d, 0x61, 0x74, 0x4d, 0x75, 0x6c, 0x5f, 0x62, 0x69, 0x61, 0x73, 0x0, 0x5c, 0xeb, 0xff, 0xff, 0x20, 0x0, 0x0, 0x0, 0xa8, 0xa5, 0x75, 0x3e, 0x14, 0xa1, 0x28, 0x3e, 0x6c, 0x87, 0x7b, 0x3e, 0x72, 0xe5, 0x7c, 0x3b, 0x9a, 0x7f, 0xa1, 0xbd, 0x1a, 0x9c, 0x41, 0xbe, 0x96, 0xd, 0x32, 0xbc, 0x38, 0x30, 0x9c, 0xbe, 0xaa, 0xed, 0xff, 0xff, 0x10, 0x0, 0x0, 0x0, 0xf, 0x0, 0x0, 0x0, 0x14, 0x0, 0x0, 0x0, 0x30, 0x0, 0x0, 0x0, 0x2, 0x0, 0x0, 0x0, 0x8, 0x0, 0x0, 0x0, 0x8, 0x0, 0x0, 0x0, 0x18, 0x0, 0x0, 0x0, 0x64, 0x65, 0x6e, 0x73, 0x65, 0x5f, 0x33, 0x2f, 0x6b, 0x65, 0x72, 0x6e, 0x65, 0x6c, 0x2f, 0x74, 0x72, 0x61, 0x6e, 0x73, 0x70, 0x6f, 0x73, 0x65, 0x0, 0x0, 0x0, 0x0, 0xc4, 0xeb, 0xff, 0xff, 0x0, 0x1, 0x0, 0x0, 0x3b, 0xa0, 0x88, 0x3f, 0x6b, 0x5f, 0x6d, 0x3f, 0xa6, 0x22, 0x1a, 0x3e, 0x7f, 0x83, 0x60, 0xbf, 0xc5, 0x7d, 0x16, 0xbe, 0xfe, 0xdf, 0xcc, 0xbf, 0x76, 0x8a, 0x81, 0xbf, 0xcc, 0x18, 0x23, 0x3f, 0x64, 0xeb, 0xd6, 0x3d, 0xca, 0x57, 0xe, 0xbd, 0xb2, 0x45, 0x4b, 0xbf, 0x48, 0x3b, 0x9, 0x3f, 0x72, 0x76, 0x5d, 0x3f, 0xd1, 0x4f, 0xd2, 0xbe, 0x5c, 0xf0, 0xbd, 0xbf, 0x9c, 0xb9, 0x3a, 0xbf, 0xe5, 0x52, 0x81, 0xbf, 0xd4, 0xb3, 0x3c, 0x3d, 0x85, 0xb, 0xb6, 0x3d, 0xb8, 0x39, 0xdb, 0xbe, 0x2c, 0x95, 0x85, 0xbe, 0xed, 0x28, 0x3a, 0xbf, 0x7a, 0x13, 0x6c, 0x3f, 0x96, 0x70, 0x93, 0xbf, 0x79, 0xcb, 0x97, 0xbf, 0xf6, 0x2d, 0xd4, 0x3f, 0x71, 0xa3, 0x3e, 0x3d, 0xe5, 0x5c, 0x91, 0xbf, 0xf8, 0xbf, 0xf, 0x3f, 0x2a, 0x36, 0x5b, 0x3e, 0x5, 0x97, 0xc6, 0xbe, 0x79, 0x9, 0xb1, 0x3f, 0x6f, 0xb0, 0xbe, 0x3e, 0x3f, 0x9e, 0xd5, 0x3f, 0xee, 0x9e, 0xe8, 0xbe, 0xde, 0x9c, 0x9a, 0x3f, 0x90, 0x90, 0xc5, 0xbf, 0xd7, 0x2d, 0x80, 0x3e, 0xac, 0xd4, 0x2f, 0x3f, 0x8a, 0xa9, 0x86, 0x3f, 0x2c, 0xa3, 0x55, 0x3f, 0x84, 0x23, 0x1a, 0x3f, 0xa6, 0x97, 0x89, 0xbf, 0x7b, 0x58, 0x5c, 0xbf, 0xef, 0xd5, 0x77, 0xbf, 0x61, 0x80, 0x78, 0x3f, 0x87, 0x38, 0x3d, 0x3e, 0x67, 0x51, 0x80, 0xbf, 0x90, 0xe0, 0xcb, 0xbe, 0x8d, 0xcb, 0x34, 0xbf, 0x9d, 0x3a, 0x26, 0x3f, 0x8e, 0x1d, 0x2c, 0x3f, 0xa8, 0x19, 0xea, 0xbf, 0xe3, 0x39, 0x45, 0x3e, 0x77, 0x5a, 0xb7, 0xbf, 0x61, 0x25, 0x3a, 0x3e, 0x29, 0x4, 0x52, 0xbf, 0x5f, 0x36, 0xa2, 0xbf, 0x65, 0xd8, 0xf2, 0xbf, 0x22, 0xf1, 0x38, 0xbf, 0x2f, 0xb1, 0xa0, 0xbf, 0x2e, 0x48, 0x53, 0xbf, 0x95, 0x13, 0x78, 0x3d, 0xb8, 0x8c, 0x2d, 0x3f, 0xf2, 0xee, 0xff, 0xff, 0x10, 0x0, 0x0, 0x0, 0xe, 0x0, 0x0, 0x0, 0x10, 0x0, 0x0, 0x0, 0x24, 0x0, 0x0, 0x0, 0x1, 0x0, 0x0, 0x0, 0x10, 0x0, 0x0, 0x0, 0x13, 0x0, 0x0, 0x0, 0x64, 0x65, 0x6e, 0x73, 0x65, 0x5f, 0x31, 0x2f, 0x4d, 0x61, 0x74, 0x4d, 0x75, 0x6c, 0x5f, 0x62, 0x69, 0x61, 0x73, 0x0, 0x0, 0xed, 0xff, 0xff, 0x40, 0x0, 0x0, 0x0, 0xb2, 0xe6, 0xab, 0x3e, 0x26, 0xcf, 0x6, 0xbf, 0xbc, 0xf7, 0x4c, 0x3c, 0x29, 0xd0, 0x45, 0xbe, 0xc, 0xe1, 0x7b, 0x3e, 0xbc, 0x5b, 0x7, 0x3d, 0x97, 0xa8, 0x78, 0x3e, 0x96, 0x26, 0x40, 0xbe, 0x98, 0xb4, 0xaf, 0x3d, 0x7b, 0xc0, 0x14, 0xbe, 0xd1, 0x3d, 0x1b, 0xbe, 0x3a, 0x76, 0xb1, 0x3e, 0x8e, 0x6a, 0x8b, 0xbd, 0x3, 0xe2, 0xf1, 0xbe, 0x77, 0x99, 0x77, 0xbe, 0x8e, 0x39, 0xa5, 0x3d, 0x6e, 0xef, 0xff, 0xff, 0x10, 0x0, 0x0, 0x0, 0xd, 0x0, 0x0, 0x0, 0x14, 0x0, 0x0, 0x0, 0x24, 0x0, 0x0, 0x0, 0x2, 0x0, 0x0, 0x0, 0x1, 0x0, 0x0, 0x0, 0x1e, 0x0, 0x0, 0x0, 0xf, 0x0, 0x0, 0x0, 0x64, 0x65, 0x6e, 0x73, 0x65, 0x5f, 0x34, 0x2f, 0x42, 0x69, 0x61, 0x73, 0x41, 0x64, 0x64, 0x0, 0x7c, 0xed, 0xff, 0xff, 0xa6, 0xef, 0xff, 0xff, 0x10, 0x0, 0x0, 0x0, 0xc, 0x0, 0x0, 0x0, 0x14, 0x0, 0x0, 0x0, 0x24, 0x0, 0x0, 0x0, 0x2, 0x0, 0x0, 0x0, 0x1, 0x0, 0x0, 0x0, 0x8, 0x0, 0x0, 0x0, 0xc, 0x0, 0x0, 0x0, 0x64, 0x65, 0x6e, 0x73, 0x65, 0x5f, 0x33, 0x2f, 0x54, 0x61, 0x6e, 0x68, 0x0, 0x0, 0x0, 0x0, 0xb4, 0xed, 0xff, 0xff, 0xde, 0xef, 0xff, 0xff, 0x10, 0x0, 0x0, 0x0, 0xb, 0x0, 0x0, 0x0, 0x14, 0x0, 0x0, 0x0, 0x24, 0x0, 0x0, 0x0, 0x2, 0x0, 0x0, 0x0, 0x1, 0x0, 0x0, 0x0, 0x8, 0x0, 0x0, 0x0, 0xf, 0x0, 0x0, 0x0, 0x64, 0x65, 0x6e, 0x73, 0x65, 0x5f, 0x32, 0x2f, 0x42, 0x69, 0x61, 0x73, 0x41, 0x64, 0x64, 0x0, 0xec, 0xed, 0xff, 0xff, 0x16, 0xf0, 0xff, 0xff, 0x10, 0x0, 0x0, 0x0, 0xa, 0x0, 0x0, 0x0, 0x14, 0x0, 0x0, 0x0, 0x24, 0x0, 0x0, 0x0, 0x2, 0x0, 0x0, 0x0, 0x1, 0x0, 0x0, 0x0, 0x10, 0x0, 0x0, 0x0, 0xc, 0x0, 0x0, 0x0, 0x64, 0x65, 0x6e, 0x73, 0x65, 0x5f, 0x31, 0x2f, 0x54, 0x61, 0x6e, 0x68, 0x0, 0x0, 0x0, 0x0, 0x24, 0xee, 0xff, 0xff, 0x4e, 0xf0, 0xff, 0xff, 0x10, 0x0, 0x0, 0x0, 0x9, 0x0, 0x0, 0x0, 0x10, 0x0, 0x0, 0x0, 0x24, 0x0, 0x0, 0x0, 0x1, 0x0, 0x0, 0x0, 0x1e, 0x0, 0x0, 0x0, 0x13, 0x0, 0x0, 0x0, 0x64, 0x65, 0x6e, 0x73, 0x65, 0x5f, 0x34, 0x2f, 0x4d, 0x61, 0x74, 0x4d, 0x75, 0x6c, 0x5f, 0x62, 0x69, 0x61, 0x73, 0x0, 0x5c, 0xee, 0xff, 0xff, 0x78, 0x0, 0x0, 0x0, 0xfc, 0x81, 0x9e, 0x3c, 0x52, 0x16, 0xbc, 0xbc, 0x73, 0x5b, 0x9, 0xbe, 0x60, 0xa6, 0xa5, 0xbd, 0x2, 0xf6, 0xe3, 0xbd, 0x6c, 0xa2, 0x1, 0xbd, 0xe7, 0xd4, 0x1c, 0xbe, 0x55, 0x72, 0x5d, 0x3e, 0x59, 0xd, 0x5a, 0x3c, 0x5a, 0xf7, 0x59, 0x3e, 0xf3, 0xc3, 0x69, 0x3e, 0xc, 0xd0, 0xc3, 0xbe, 0x8, 0xa4, 0x64, 0x3f, 0x5f, 0x4c, 0xc7, 0xbe, 0xd1, 0x96, 0x80, 0xbc, 0xee, 0xe6, 0x71, 0x3e, 0xf5, 0x97, 0x21, 0xbc, 0x5b, 0xbd, 0x57, 0x3f, 0x75, 0x7b, 0xf4, 0xbe, 0x55, 0x1e, 0x8a, 0x3e, 0x60, 0xb4, 0x1, 0x3e, 0xef, 0x7c, 0xfd, 0xbd, 0x3e, 0x98, 0x6e, 0x3e, 0x98, 0xd0, 0x39, 0xbf, 0x66, 0x6a, 0x85, 0x3e, 0x3a, 0x3d, 0xce, 0xbd, 0x6, 0x13, 0x2e, 0x3e, 0x90, 0xe, 0x12, 0x3d, 0x4d, 0x31, 0xa4, 0xbd, 0x14, 0x53, 0x1c, 0x3e, 0x2, 0xf1, 0xff, 0xff, 0x10, 0x0, 0x0, 0x0, 0x8, 0x0, 0x0, 0x0, 0x14, 0x0, 0x0, 0x0, 0x24, 0x0, 0x0, 0x0, 0x2, 0x0, 0x0, 0x0, 0x1, 0x0, 0x0, 0x0, 0x10, 0x0, 0x0, 0x0, 0xf, 0x0, 0x0, 0x0, 0x64, 0x65, 0x6e, 0x73, 0x65, 0x5f, 0x31, 0x2f, 0x42, 0x69, 0x61, 0x73, 0x41, 0x64, 0x64, 0x0, 0x10, 0xef, 0xff, 0xff, 0x3a, 0xf1, 0xff, 0xff, 0x10, 0x0, 0x0, 0x0, 0x7, 0x0, 0x0, 0x0, 0x14, 0x0, 0x0, 0x0, 0x24, 0x0, 0x0, 0x0, 0x2, 0x0, 0x0, 0x0, 0x1, 0x0, 0x0, 0x0, 0x8, 0x0, 0x0, 0x0, 0xf, 0x0, 0x0, 0x0, 0x64, 0x65, 0x6e, 0x73, 0x65, 0x5f, 0x33, 0x2f, 0x42, 0x69, 0x61, 0x73, 0x41, 0x64, 0x64, 0x0, 0x48, 0xef, 0xff, 0xff, 0x72, 0xf1, 0xff, 0xff, 0x10, 0x0, 0x0, 0x0, 0x6, 0x0, 0x0, 0x0, 0x14, 0x0, 0x0, 0x0, 0x24, 0x0, 0x0, 0x0, 0x2, 0x0, 0x0, 0x0, 0x1, 0x0, 0x0, 0x0, 0x1e, 0x0, 0x0, 0x0, 0xc, 0x0, 0x0, 0x0, 0x64, 0x65, 0x6e, 0x73, 0x65, 0x5f, 0x34, 0x2f, 0x54, 0x61, 0x6e, 0x68, 0x0, 0x0, 0x0, 0x0, 0x80, 0xef, 0xff, 0xff, 0xaa, 0xf1, 0xff, 0xff, 0x10, 0x0, 0x0, 0x0, 0x5, 0x0, 0x0, 0x0, 0x14, 0x0, 0x0, 0x0, 0x30, 0x0, 0x0, 0x0, 0x2, 0x0, 0x0, 0x0, 0x10, 0x0, 0x0, 0x0, 0x1e, 0x0, 0x0, 0x0, 0x18, 0x0, 0x0, 0x0, 0x64, 0x65, 0x6e, 0x73, 0x65, 0x5f, 0x31, 0x2f, 0x6b, 0x65, 0x72, 0x6e, 0x65, 0x6c, 0x2f, 0x74, 0x72, 0x61, 0x6e, 0x73, 0x70, 0x6f, 0x73, 0x65, 0x0, 0x0, 0x0, 0x0, 0xc4, 0xef, 0xff, 0xff, 0x80, 0x7, 0x0, 0x0, 0xf6, 0x24, 0x65, 0xbe, 0x82, 0x72, 0xea, 0x3d, 0x60, 0x16, 0x83, 0x3d, 0xbd, 0x6a, 0x9b, 0xbe, 0xd0, 0x52, 0xf1, 0xbe, 0x7e, 0x4d, 0x93, 0xbd, 0xcc, 0x0, 0xed, 0x3e, 0x19, 0xeb, 0x14, 0x3f, 0xf7, 0xa, 0x6e, 0x3d, 0xa7, 0xf3, 0x22, 0xbe, 0xeb, 0x7, 0x1e, 0x3c, 0x76, 0xcf, 0x3d, 0xbe, 0xea, 0xf3, 0x73, 0xbe, 0xee, 0x2d, 0xbd, 0xbe, 0x60, 0x85, 0x22, 0xbe, 0x9a, 0xe1, 0x87, 0xbd, 0x87, 0x93, 0x9c, 0x3e, 0xc7, 0xb1, 0x99, 0x3d, 0x44, 0xbe, 0xab, 0xbe, 0x8d, 0xa6, 0xb0, 0x3d, 0x6d, 0x75, 0xa6, 0xbe, 0x3d, 0xec, 0x43, 0x3e, 0x78, 0x8b, 0xb5, 0xbe, 0xae, 0xd5, 0x91, 0x3d, 0xc8, 0x76, 0x69, 0xbe, 0x98, 0x29, 0xdc, 0xbd, 0x37, 0x1f, 0x8f, 0xbe, 0xee, 0xaa, 0xe5, 0xbe, 0x61, 0xd7, 0x5a, 0x3e, 0x89, 0x6e, 0x7a, 0x3d, 0x50, 0x73, 0x1f, 0xbe, 0xf1, 0xb1, 0x9b, 0xbc, 0xe7, 0xb, 0xbe, 0xbe, 0xad, 0x2, 0x4f, 0x3e, 0xd9, 0xd3, 0x87, 0x3c, 0x66, 0xb2, 0xd9, 0xbd, 0x72, 0xb4, 0x80, 0xbd, 0xa0, 0xa, 0x4f, 0x3c, 0x68, 0x10, 0xe4, 0x3e, 0xf4, 0x1, 0x38, 0xbf, 0xbf, 0xf, 0x11, 0xbf, 0xa6, 0xb, 0x96, 0xbe, 0xa9, 0x41, 0x8d, 0x3d, 0x22, 0x84, 0xfc, 0xbe, 0x17, 0xbb, 0x57, 0xbd, 0x3b, 0xba, 0xe7, 0xbd, 0x1d, 0x56, 0x30, 0x3e, 0xfd, 0xfb, 0xbd, 0xbd, 0x2c, 0xe, 0x4b, 0xbe, 0x45, 0x75, 0xa6, 0xbe, 0xa4, 0xe7, 0x43, 0xbd, 0xde, 0x4e, 0x86, 0xbc, 0x90, 0x4e, 0x1b, 0xbf, 0x5b, 0xba, 0x77, 0x3e, 0x75, 0x29, 0x93, 0xbe, 0x3f, 0xc7, 0x6, 0x3d, 0x6a, 0xf7, 0x1b, 0x3f, 0xc5, 0xc6, 0xb0, 0xbe, 0x8d, 0x68, 0xef, 0x3d, 0x81, 0x74, 0xa9, 0x3d, 0xe4, 0x64, 0x5f, 0xbe, 0x2d, 0xfe, 0x41, 0x3c, 0xc0, 0xec, 0x5, 0xbf, 0x56, 0x98, 0x69, 0x3e, 0x76, 0x1f, 0x17, 0x3d, 0x82, 0xb5, 0x14, 0x3f, 0xc8, 0x15, 0x55, 0x3e, 0xcb, 0x6c, 0xbb, 0x3d, 0x26, 0x9c, 0xd6, 0x3e, 0xb5, 0x1f, 0x12, 0x3e, 0x69, 0x3c, 0x72, 0xbe, 0xaa, 0x5f, 0x85, 0x3e, 0xfa, 0xf2, 0x5d, 0x3e, 0x1c, 0xba, 0x8, 0x3e, 0xab, 0x49, 0x23, 0xbe, 0xed, 0x52, 0x78, 0x3e, 0x78, 0xc7, 0xc4, 0x36, 0x7c, 0xb2, 0x19, 0x3e, 0xd3, 0xc2, 0x45, 0xbe, 0xdf, 0x33, 0xf3, 0xbd, 0x41, 0x52, 0xaa, 0xbe, 0x2a, 0x64, 0x4f, 0x3e, 0x74, 0x90, 0xce, 0x3e, 0xdf, 0x27, 0xff, 0x3c, 0x7e, 0x27, 0x5, 0x3e, 0x18, 0x25, 0xbc, 0xbe, 0xb3, 0x2a, 0xbc, 0x3e, 0x43, 0xa7, 0x2, 0x3f, 0xd7, 0xfc, 0x96, 0x3b, 0x43, 0x15, 0x37, 0xbe, 0xdf, 0x7f, 0xbd, 0xbd, 0x2, 0x9f, 0xdc, 0xbc, 0x5e, 0x8c, 0x1e, 0x3e, 0xfa, 0xb1, 0x2d, 0x3e, 0xf7, 0x28, 0x6b, 0xbd, 0x32, 0xa9, 0xeb, 0xbd, 0xd, 0x96, 0x86, 0x3e, 0x2, 0xfc, 0x43, 0x3f, 0x3b, 0xf5, 0xc4, 0xbe, 0x4d, 0xb5, 0x16, 0x3f, 0xe0, 0x7b, 0x74, 0xbe, 0x20, 0xf0, 0x83, 0x3b, 0xa3, 0xbd, 0xb9, 0xbe, 0x6, 0x9f, 0xc6, 0xbd, 0x4, 0xf6, 0xaf, 0xbb, 0xb9, 0x57, 0x5, 0x3e, 0xdd, 0x65, 0xb5, 0xbe, 0x2a, 0x87, 0x24, 0x3d, 0xb7, 0xbc, 0xaf, 0x3e, 0xe8, 0xb6, 0xb9, 0x3e, 0x37, 0x9c, 0xa1, 0xbd, 0x81, 0xdb, 0x54, 0x3e, 0xeb, 0x2b, 0x9, 0x3e, 0x1a, 0x42, 0xc4, 0xbd, 0x57, 0x66, 0xa1, 0xbd, 0xcb, 0xbe, 0x1b, 0xbf, 0xfb, 0x23, 0xc4, 0xbd, 0x39, 0xa9, 0x15, 0x3e, 0x4e, 0x57, 0x97, 0xbe, 0x71, 0xc5, 0xd0, 0xbd, 0xc1, 0xe7, 0x3e, 0xbc, 0x94, 0x9f, 0x6c, 0x3e, 0x70, 0x42, 0xbc, 0x3c, 0xc8, 0xcf, 0x4c, 0xbe, 0xd8, 0x80, 0xb3, 0x3e, 0x56, 0x5a, 0x4e, 0x3c, 0x3, 0xb2, 0x90, 0xbd, 0xc2, 0xb5, 0x10, 0xbd, 0xc, 0x72, 0x37, 0xbe, 0x52, 0xd4, 0x5, 0xbe, 0x8d, 0xe9, 0x9b, 0x3e, 0x22, 0x6a, 0x1e, 0xbd, 0x4a, 0x66, 0xf3, 0x3e, 0xc, 0x7d, 0x5f, 0xbd, 0x4d, 0x37, 0xa6, 0x3d, 0x31, 0x2a, 0x69, 0x3d, 0x81, 0xab, 0xcd, 0x3e, 0xd1, 0x22, 0x91, 0xbd, 0x3c, 0x70, 0x69, 0x3e, 0x93, 0x77, 0x4c, 0xbd, 0x81, 0xb2, 0xf, 0x3e, 0x74, 0x85, 0xf7, 0xbd, 0xa1, 0x12, 0xa4, 0xbe, 0xb1, 0x69, 0x2, 0xbf, 0x9, 0x5c, 0x8f, 0x3d, 0xf6, 0xd, 0xc1, 0x3e, 0xd5, 0xcd, 0xdb, 0xbd, 0xfe, 0xfe, 0x13, 0x3f, 0xc7, 0x84, 0xb1, 0xbe, 0x8a, 0xbd, 0xbd, 0x3c, 0xd5, 0x83, 0xd6, 0xbd, 0x40, 0x1c, 0xd2, 0x3d, 0x6e, 0xbd, 0x3b, 0x3e, 0x60, 0x7, 0xab, 0x3d, 0xb3, 0xc5, 0xb9, 0xbe, 0xfa, 0x2a, 0xc, 0x3e, 0x1, 0x6, 0x64, 0xbe, 0x81, 0xcb, 0xef, 0x3d, 0xbe, 0x86, 0xdf, 0x3d, 0xcb, 0x12, 0xde, 0x3d, 0x50, 0xef, 0x64, 0xbe, 0x38, 0x7b, 0x3d, 0xbc, 0xe7, 0x4e, 0x7b, 0x3e, 0x81, 0xb0, 0xb3, 0xbd, 0x45, 0xba, 0xb3, 0xbc, 0x3e, 0x4, 0xf7, 0x3d, 0xe8, 0xba, 0x2d, 0x3e, 0xfe, 0xb4, 0xd1, 0xbe, 0x5b, 0x79, 0xa0, 0xbe, 0x16, 0x1a, 0xb1, 0xbe, 0x5d, 0xac, 0xfd, 0x3d, 0x12, 0xe8, 0x6a, 0xbe, 0xfe, 0xd4, 0xd7, 0x3e, 0x5b, 0x17, 0x3a, 0x3f, 0x80, 0x9d, 0x86, 0x3e, 0x46, 0xf9, 0xd, 0xbd, 0xe, 0xcb, 0x35, 0xbe, 0x42, 0x92, 0xc6, 0xbd, 0x62, 0x39, 0x33, 0xbe, 0xe7, 0xe9, 0xc3, 0x3d, 0x14, 0xd1, 0x1d, 0xbe, 0x44, 0x6, 0xb9, 0x3e, 0xf7, 0x6f, 0x7c, 0xbe, 0x29, 0x37, 0x42, 0x3f, 0x3e, 0x6, 0xd0, 0xbc, 0xa2, 0xbe, 0x1a, 0xbd, 0x67, 0x62, 0x5, 0x3f, 0xe3, 0xf9, 0xc7, 0x3d, 0x44, 0xfc, 0xda, 0xbe, 0x7c, 0x73, 0x4, 0xbe, 0x20, 0xe7, 0x87, 0xbd, 0x46, 0x6c, 0x42, 0x3c, 0x1, 0x7, 0x98, 0x3c, 0xe1, 0x16, 0x21, 0xbe, 0x9d, 0xe3, 0xea, 0x3b, 0x8b, 0xc8, 0xa6, 0xbe, 0xe7, 0x4a, 0x47, 0xbe, 0xa0, 0x5f, 0x7b, 0xbc, 0x8c, 0x7e, 0x83, 0x3e, 0x63, 0x79, 0xeb, 0x3d, 0x9b, 0x86, 0x4c, 0x3d, 0x4d, 0xf5, 0xc4, 0xbe, 0x58, 0xa0, 0x92, 0xbe, 0x73, 0x14, 0x78, 0x3d, 0x4f, 0x10, 0x4d, 0x3e, 0x5c, 0xb2, 0x4f, 0x3e, 0xaf, 0xfc, 0x3d, 0x3e, 0x28, 0x87, 0x8e, 0xbe, 0xb7, 0xd9, 0x1f, 0x3e, 0xe4, 0xf2, 0x7d, 0x3e, 0x13, 0xe6, 0x1e, 0x3d, 0x59, 0xcf, 0x76, 0xbd, 0x8d, 0xaa, 0x95, 0xbd, 0x8e, 0xf0, 0x6c, 0xbe, 0xa7, 0xdb, 0x43, 0x3f, 0x90, 0x47, 0x12, 0xbe, 0x5d, 0xc8, 0xd6, 0x3d, 0x88, 0x33, 0xff, 0xbe, 0xc4, 0xf9, 0x3c, 0x3f, 0x48, 0xe4, 0xf4, 0xbe, 0x13, 0xe8, 0x1, 0xbe, 0x69, 0x6d, 0x93, 0xbd, 0x12, 0x2d, 0xb1, 0xbc, 0x7, 0x30, 0x6, 0x3c, 0x68, 0xcb, 0x5, 0xbf, 0xd3, 0xdd, 0x1c, 0xbf, 0x9b, 0x6d, 0xea, 0xbe, 0xcd, 0x6d, 0x6b, 0xbe, 0xe6, 0x4, 0x9c, 0xbe, 0x6b, 0xe5, 0x29, 0x3f, 0xb9, 0xdc, 0x80, 0x3e, 0xb3, 0x75, 0x4a, 0xbe, 0x3, 0x1e, 0x9d, 0x3e, 0x30, 0x49, 0x86, 0xbe, 0x72, 0x1a, 0x49, 0xbe, 0x97, 0x48, 0x34, 0xbe, 0x75, 0x6f, 0xe0, 0xbe, 0x8f, 0x55, 0x3, 0xbf, 0x5a, 0x9, 0x72, 0xbe, 0xb6, 0xe7, 0xae, 0x3c, 0x60, 0x43, 0x41, 0xbd, 0x7d, 0x31, 0x27, 0x3e, 0xb1, 0xd9, 0xef, 0x3e, 0x30, 0x21, 0x86, 0x3e, 0x65, 0xdf, 0x1e, 0xbd, 0xb9, 0x23, 0xc9, 0x3e, 0xd9, 0x9c, 0x64, 0x3e, 0x71, 0xf9, 0xbe, 0x3e, 0x90, 0x90, 0xc9, 0x3d, 0x43, 0x95, 0xa, 0x3d, 0x8, 0x2b, 0xf5, 0x3d, 0xcd, 0x9, 0x2f, 0x3e, 0x5e, 0xf2, 0xbd, 0x3b, 0xfc, 0x73, 0xdd, 0xbe, 0x4b, 0xf3, 0xcd, 0xbe, 0xee, 0x3e, 0xf9, 0x3e, 0x7c, 0xe6, 0x7, 0x3f, 0x99, 0x6f, 0x13, 0x3e, 0x1b, 0xae, 0x47, 0x3e, 0x13, 0xaf, 0x6f, 0xbe, 0x27, 0x46, 0xb, 0x3d, 0x24, 0x3d, 0xa5, 0x3d, 0x39, 0x83, 0x99, 0xbe, 0xb7, 0x9e, 0x6, 0xbd, 0x30, 0xe6, 0xe8, 0xbd, 0x17, 0x4a, 0x47, 0xbe, 0x83, 0x6f, 0x26, 0x3d, 0xba, 0x3f, 0x5c, 0x3e, 0xa2, 0xf5, 0xb, 0xbe, 0xed, 0xf4, 0x45, 0xbe, 0x91, 0xae, 0x1, 0x3e, 0xa7, 0x7e, 0x7, 0x3e, 0xdb, 0xf1, 0xea, 0x3e, 0xf1, 0x38, 0x73, 0xbd, 0x5d, 0x4a, 0x94, 0xbe, 0x9b, 0x29, 0xb4, 0x3e, 0xdc, 0x36, 0x38, 0xbe, 0xa8, 0xee, 0xd0, 0x3d, 0xe0, 0xcb, 0x57, 0xbc, 0xc8, 0xd0, 0xa, 0xbe, 0x6e, 0xb8, 0x17, 0x3d, 0x52, 0x44, 0x6a, 0x3d, 0x9a, 0x69, 0x73, 0x3d, 0xdf, 0xbd, 0xcf, 0xbd, 0xd6, 0xa3, 0x84, 0xbe, 0xc4, 0xc, 0x64, 0x3c, 0xa7, 0x70, 0x28, 0xbe, 0x7c, 0x17, 0xc4, 0xbc, 0x4b, 0x33, 0x70, 0x3d, 0xae, 0xc0, 0xf8, 0xbe, 0x92, 0x58, 0x6e, 0x3e, 0x7d, 0xdb, 0x5f, 0x3d, 0xdf, 0x56, 0xda, 0x3e, 0x5f, 0x8d, 0x5, 0x3d, 0xcf, 0x8d, 0xd, 0x3e, 0x32, 0xd0, 0x1, 0xbe, 0x61, 0x22, 0x38, 0xbc, 0x5e, 0xa2, 0x1, 0xbf, 0x2a, 0x4c, 0xaf, 0x3d, 0x63, 0x44, 0x13, 0x3e, 0x96, 0xa7, 0x32, 0xbd, 0x86, 0x86, 0xe9, 0xbd, 0x3a, 0xbe, 0x55, 0x3e, 0x79, 0x6e, 0x71, 0xbb, 0x6c, 0x7f, 0x3e, 0xbe, 0xca, 0xd4, 0x43, 0xbd, 0xc1, 0x5a, 0x20, 0x3d, 0x19, 0xca, 0xbb, 0x3e, 0xd0, 0xc3, 0xd0, 0x3d, 0x19, 0x78, 0x4d, 0x3d, 0x58, 0x9a, 0x85, 0xbe, 0xfa, 0x55, 0x6a, 0x3c, 0x68, 0x6e, 0xf8, 0xbe, 0x9e, 0xc0, 0xad, 0x3e, 0xce, 0x46, 0x92, 0x3e, 0xf5, 0xaf, 0x39, 0x3e, 0x5c, 0xac, 0xe7, 0xbd, 0xb2, 0x68, 0xa, 0x3e, 0xf3, 0x62, 0x85, 0x3e, 0x37, 0x2c, 0x81, 0xbe, 0x8b, 0xf3, 0x31, 0xbe, 0x25, 0x92, 0xc5, 0xbe, 0xb9, 0xc9, 0xd9, 0x3e, 0xa5, 0x88, 0xfd, 0x3d, 0xe5, 0x23, 0xb0, 0xbe, 0x8, 0xb3, 0x64, 0xbe, 0x10, 0xc4, 0x65, 0xbe, 0xc5, 0x1d, 0x4f, 0xbe, 0x33, 0x70, 0xb7, 0x3e, 0xbd, 0xf5, 0xa7, 0xbc, 0xa8, 0x75, 0xb0, 0xbb, 0x97, 0x5b, 0xad, 0xbe, 0x8f, 0x5, 0xcb, 0xbd, 0xe5, 0x65, 0xdd, 0x3e, 0xf2, 0x53, 0xf8, 0x3d, 0xc8, 0x5e, 0xf1, 0x3c, 0x87, 0xa2, 0xc2, 0xbd, 0xa, 0x69, 0x9b, 0xbd, 0x4a, 0x5d, 0xdd, 0x3c, 0xf3, 0x25, 0xdd, 0x3e, 0x9a, 0x43, 0xe9, 0x3d, 0x2b, 0x45, 0x7a, 0x3e, 0x4d, 0xf3, 0x9d, 0x3e, 0xe8, 0x47, 0x97, 0x3e, 0x28, 0xf7, 0x67, 0x3e, 0xa6, 0xf2, 0xe4, 0xbd, 0xa4, 0x1f, 0x84, 0x3e, 0xee, 0xa3, 0xd, 0xbe, 0x4f, 0xba, 0x7a, 0x3d, 0xf5, 0x49, 0x37, 0xbe, 0x78, 0xb2, 0x9, 0xbf, 0xa0, 0x35, 0x8, 0x3e, 0xb4, 0xfc, 0xb4, 0xbd, 0x1d, 0x96, 0xf9, 0xbd, 0x2, 0xa8, 0x7, 0xbf, 0xc3, 0x44, 0x57, 0x3e, 0xb8, 0x45, 0x4f, 0xbe, 0x84, 0x89, 0xce, 0x3e, 0xe3, 0x5f, 0x4f, 0xbe, 0x42, 0x59, 0x28, 0xbe, 0x6b, 0x8c, 0x16, 0x3e, 0x22, 0xce, 0x19, 0x3e, 0x71, 0xbe, 0xf5, 0xbb, 0x5a, 0x10, 0x9d, 0x3c, 0x83, 0x67, 0x1a, 0x3e, 0x13, 0xa4, 0xaf, 0x3c, 0x9f, 0x82, 0x96, 0xbd, 0xa9, 0x38, 0x91, 0xbe, 0xf9, 0x49, 0xda, 0x3e, 0x3c, 0x50, 0xcc, 0xbe, 0x67, 0x8, 0xd7, 0x3e, 0x5f, 0xd4, 0x97, 0x3e, 0xbf, 0x68, 0x15, 0x3c, 0x75, 0x80, 0x8d, 0xbe, 0xa8, 0x6e, 0x92, 0x3e, 0xf3, 0xc2, 0x19, 0x3e, 0x74, 0xa2, 0x30, 0x3d, 0x3e, 0x64, 0x16, 0xbf, 0xc1, 0xba, 0xf6, 0x3d, 0x81, 0x95, 0x7d, 0xbd, 0x70, 0xbf, 0x3a, 0x3e, 0x19, 0x1e, 0xbc, 0x3d, 0x8f, 0x20, 0x38, 0x3e, 0x56, 0x11, 0x21, 0xbe, 0x28, 0xa1, 0xa0, 0xbd, 0x51, 0x71, 0xce, 0x3d, 0xdf, 0xfa, 0x73, 0x3e, 0x68, 0x6, 0x92, 0x3c, 0x58, 0x58, 0xa4, 0xbc, 0xed, 0x4, 0x92, 0x3d, 0x6c, 0x14, 0x91, 0x3d, 0xb4, 0xaa, 0x3a, 0x3e, 0x84, 0xc4, 0x32, 0x3d, 0xfa, 0xac, 0x3c, 0xbe, 0x7d, 0x71, 0x8f, 0x3d, 0x2, 0xbb, 0xaf, 0x3e, 0x2e, 0x8, 0x71, 0xbd, 0xe8, 0x7a, 0x3a, 0xbd, 0xfd, 0x8f, 0x90, 0x3d, 0xf, 0x26, 0x80, 0x3e, 0x3e, 0x1b, 0x2f, 0x3e, 0x54, 0xfc, 0xe8, 0x3d, 0x7d, 0x9a, 0xa2, 0x3d, 0x45, 0xf0, 0x18, 0xbe, 0xdc, 0x4a, 0x1a, 0xbc, 0xa9, 0x4b, 0x51, 0x3b, 0x7b, 0x69, 0x7a, 0x3d, 0x58, 0xd2, 0xb7, 0x3d, 0x6c, 0x2c, 0x93, 0x3e, 0x4a, 0x99, 0x7b, 0x3c, 0x30, 0x53, 0x1e, 0x3d, 0x8, 0x6f, 0x85, 0x3e, 0x69, 0xde, 0xa, 0x3e, 0xe6, 0xd6, 0x18, 0x3e, 0xb1, 0xb3, 0x6d, 0xba, 0xab, 0x63, 0x2a, 0xbc, 0x79, 0x4d, 0xaa, 0x3e, 0x42, 0x30, 0x9b, 0x3d, 0xc5, 0xed, 0xb9, 0x3d, 0xa4, 0x9a, 0xd8, 0x3d, 0x20, 0x99, 0xb, 0x3f, 0x2a, 0xbc, 0x54, 0x3e, 0xae, 0x2b, 0x8e, 0xbd, 0x81, 0xd6, 0xd6, 0x3d, 0xf7, 0x1c, 0xf1, 0xbd, 0x58, 0xdc, 0xf1, 0x3d, 0x91, 0xce, 0xc3, 0xbd, 0x8d, 0x33, 0xe7, 0x3d, 0xac, 0xe0, 0x9a, 0xbe, 0x28, 0xde, 0x53, 0x3e, 0x60, 0xcf, 0xb5, 0xbd, 0x0, 0xdd, 0x97, 0x3e, 0x46, 0xe4, 0xcf, 0x3d, 0x0, 0x57, 0x4f, 0xbe, 0x93, 0x17, 0xd6, 0x3d, 0x5c, 0x33, 0xce, 0xbc, 0x4f, 0xc0, 0x93, 0x3d, 0xcb, 0x4d, 0xb8, 0xbd, 0x66, 0x5, 0x3f, 0xbe, 0xaa, 0xbb, 0xff, 0xbc, 0xaf, 0x67, 0xf5, 0xbe, 0xaf, 0x8c, 0x8b, 0x3e, 0x28, 0x9d, 0x26, 0xbe, 0x77, 0x10, 0xa6, 0x3d, 0x4f, 0x1a, 0x8a, 0x3e, 0x24, 0xb, 0x7f, 0xbe, 0x4, 0x3c, 0xac, 0x3d, 0xe9, 0xae, 0x2e, 0x3e, 0x66, 0x25, 0xe9, 0x3e, 0xd6, 0x8f, 0xdd, 0x3e, 0x6a, 0xd5, 0x16, 0xbe, 0x75, 0xec, 0x8c, 0x3c, 0x5f, 0xa9, 0xdf, 0xbd, 0x8c, 0xdf, 0x89, 0xbe, 0xd0, 0x7f, 0xae, 0xbe, 0x1b, 0x70, 0x39, 0x3d, 0x3c, 0xb3, 0x67, 0x3c, 0x2d, 0xff, 0x76, 0xbe, 0x6d, 0x78, 0xcf, 0xbe, 0x18, 0x12, 0xed, 0x3d, 0x2a, 0xbf, 0x21, 0x3e, 0xa3, 0xd4, 0x29, 0x3f, 0xba, 0xb2, 0xe8, 0x3e, 0xb4, 0xcd, 0x29, 0xbd, 0x5d, 0xa1, 0x96, 0xbd, 0xce, 0x2e, 0xbf, 0x3d, 0x1b, 0xc2, 0xa6, 0x3d, 0xa7, 0x48, 0xa6, 0x3c, 0xee, 0x27, 0xb7, 0xbe, 0x2e, 0x98, 0x2e, 0xbd, 0x1, 0x69, 0x9b, 0xbc, 0x53, 0xe7, 0x33, 0xbe, 0x27, 0x99, 0x36, 0xbd, 0x64, 0x64, 0x4, 0x3e, 0x5a, 0x9e, 0x76, 0xbd, 0x5b, 0x59, 0x9d, 0xbd, 0xa0, 0x25, 0xa4, 0x3e, 0xaf, 0xa4, 0x1e, 0x3e, 0x75, 0xcc, 0x3f, 0x3c, 0xb, 0xf, 0x82, 0x3e, 0x72, 0xf9, 0xff, 0xff, 0x10, 0x0, 0x0, 0x0, 0x4, 0x0, 0x0, 0x0, 0x14, 0x0, 0x0, 0x0, 0x30, 0x0, 0x0, 0x0, 0x2, 0x0, 0x0, 0x0, 0x8, 0x0, 0x0, 0x0, 0x10, 0x0, 0x0, 0x0, 0x18, 0x0, 0x0, 0x0, 0x64, 0x65, 0x6e, 0x73, 0x65, 0x5f, 0x32, 0x2f, 0x6b, 0x65, 0x72, 0x6e, 0x65, 0x6c, 0x2f, 0x74, 0x72, 0x61, 0x6e, 0x73, 0x70, 0x6f, 0x73, 0x65, 0x0, 0x0, 0x0, 0x0, 0x8c, 0xf7, 0xff, 0xff, 0x0, 0x2, 0x0, 0x0, 0xa1, 0x3a, 0xb, 0xbe, 0xbf, 0xb0, 0x39, 0x3e, 0x52, 0x1e, 0x8e, 0xbe, 0xd6, 0x0, 0xb5, 0xbe, 0x7b, 0x82, 0x65, 0x3e, 0x42, 0x1b, 0x87, 0xbe, 0xee, 0x90, 0x7a, 0x3e, 0x4e, 0xb, 0xb1, 0xbe, 0xa4, 0x4b, 0xc9, 0xbd, 0x25, 0x48, 0x79, 0x3e, 0x4b, 0x33, 0xea, 0x3e, 0x3e, 0xdd, 0xf2, 0x3d, 0xba, 0xa, 0xb9, 0x3e, 0x8e, 0xb0, 0x65, 0xbe, 0x3a, 0xbb, 0xa9, 0x3e, 0x69, 0xe, 0x96, 0xbe, 0x22, 0xbe, 0x2b, 0x3e, 0x8d, 0x14, 0xae, 0x3e, 0x52, 0xfc, 0xf2, 0xbc, 0x53, 0xd1, 0xb6, 0x3e, 0x14, 0xa2, 0x92, 0x3e, 0x83, 0xaf, 0x27, 0xbc, 0x93, 0xb0, 0xb7, 0xbe, 0x5, 0x32, 0xe0, 0x3d, 0x29, 0xee, 0x1a, 0x3e, 0xf5, 0x26, 0xc, 0xbe, 0x98, 0xe8, 0x1c, 0xbe, 0x53, 0x6, 0x2c, 0xbe, 0x63, 0x38, 0xde, 0xbd, 0xe1, 0x66, 0x3e, 0x3e, 0x3, 0x56, 0xd, 0x3f, 0xba, 0x12, 0x1f, 0xbe, 0xc1, 0x5b, 0x29, 0x3f, 0xcc, 0xcd, 0x66, 0x3e, 0xeb, 0x4e, 0x2b, 0x3f, 0x73, 0x75, 0xa8, 0xbe, 0xce, 0x7f, 0xbf, 0x3d, 0xc3, 0xdc, 0x80, 0xbd, 0xe, 0x82, 0x32, 0x3f, 0x9a, 0x6e, 0x49, 0x3e, 0x59, 0xb7, 0xf3, 0xbe, 0x4f, 0x7e, 0xa2, 0x3e, 0xfb, 0x7d, 0xb0, 0x3e, 0x3d, 0x20, 0xca, 0x3e, 0x3d, 0x2, 0x36, 0x3d, 0xe8, 0x8e, 0x10, 0x3f, 0x91, 0x7a, 0x12, 0x3d, 0x61, 0xf9, 0x63, 0xbe, 0xc3, 0x4d, 0x13, 0xbe, 0xc2, 0x24, 0xfc, 0xbd, 0x72, 0x7c, 0xbc, 0xbd, 0x86, 0x85, 0x48, 0x3e, 0x58, 0x94, 0x92, 0x3e, 0x85, 0x54, 0xd3, 0x3e, 0xb8, 0x67, 0xdf, 0xbe, 0x64, 0x99, 0x44, 0xbd, 0x8, 0x41, 0x7b, 0xbe, 0xaa, 0xa5, 0x10, 0xbe, 0x2a, 0xd3, 0x81, 0xbe, 0xdc, 0x2a, 0xc2, 0x3e, 0x8b, 0x97, 0xaa, 0x3d, 0x12, 0xde, 0x7c, 0x3e, 0xe0, 0x7e, 0xcf, 0x3e, 0x21, 0x1d, 0x5f, 0xbe, 0x37, 0x10, 0xf, 0x3a, 0xa3, 0xac, 0xcd, 0x3d, 0x33, 0x4b, 0xd2, 0xbd, 0x40, 0x79, 0xfe, 0x3e, 0x7b, 0x9d, 0x15, 0x3f, 0x70, 0x6e, 0x27, 0xbe, 0xa7, 0x2d, 0xa6, 0xbc, 0x76, 0x68, 0xb3, 0x3e, 0x8f, 0x8d, 0xc0, 0xbe, 0xf2, 0x89, 0x38, 0x3e, 0x20, 0x8, 0x10, 0x3e, 0xce, 0x8c, 0xd3, 0xbd, 0x86, 0x9e, 0xcc, 0x3d, 0x1d, 0xc5, 0x5d, 0x3e, 0x94, 0x76, 0x73, 0xbe, 0x3d, 0x83, 0xdd, 0x3e, 0x60, 0xfc, 0xb, 0xbf, 0xd6, 0x14, 0x4, 0x3f, 0xf8, 0x5c, 0xe0, 0x3e, 0xeb, 0xfc, 0x6f, 0x3d, 0xc7, 0x5d, 0x9f, 0x3e, 0x59, 0x9f, 0xcf, 0x3d, 0xd9, 0xc9, 0xd, 0x3b, 0x1b, 0xe2, 0xff, 0x3e, 0x51, 0xf2, 0xcd, 0x3e, 0xc9, 0x2e, 0xab, 0xbe, 0x49, 0x9e, 0x89, 0x3e, 0x81, 0xc, 0x9d, 0xbd, 0x60, 0x5c, 0x1, 0xbe, 0xcd, 0xef, 0xaf, 0xbe, 0x30, 0x5c, 0x23, 0xbe, 0x3, 0xdd, 0xe3, 0x3e, 0x17, 0x1, 0xae, 0xbc, 0x3, 0x74, 0x1f, 0x3e, 0x97, 0xe2, 0x5b, 0x3e, 0x44, 0x19, 0x68, 0x3d, 0x79, 0xfb, 0xc4, 0x3e, 0x8d, 0xb4, 0x1c, 0x3e, 0x6b, 0x70, 0xac, 0x3d, 0x59, 0x88, 0x19, 0xbe, 0xf4, 0x49, 0x40, 0xbe, 0xbc, 0x3c, 0x8, 0x3f, 0x15, 0xe8, 0xc6, 0xbe, 0xc8, 0xe8, 0x8e, 0xbe, 0xfa, 0x2, 0xb4, 0x3d, 0xcb, 0xba, 0x1d, 0xbf, 0x5d, 0xb, 0x7b, 0x3e, 0x96, 0x18, 0x8a, 0xbd, 0x25, 0xb1, 0x30, 0xbe, 0x34, 0x3e, 0x91, 0xbe, 0xcd, 0xf7, 0xa9, 0x3e, 0xbb, 0x23, 0xe8, 0xbe, 0x20, 0x3b, 0x68, 0x3e, 0xf8, 0x8a, 0x31, 0xbe, 0x97, 0xda, 0x90, 0xbb, 0x15, 0xae, 0x38, 0xbe, 0x9f, 0x58, 0x67, 0xbe, 0x43, 0xc5, 0xfd, 0x3c, 0x9f, 0xd3, 0xbf, 0x3d, 0x3e, 0x44, 0xb4, 0xbe, 0xec, 0x23, 0xc4, 0xbe, 0xf9, 0x41, 0x7b, 0xbd, 0x64, 0x4d, 0x62, 0xbe, 0x91, 0xb8, 0x82, 0xbe, 0xba, 0xfb, 0xff, 0xff, 0x10, 0x0, 0x0, 0x0, 0x3, 0x0, 0x0, 0x0, 0x14, 0x0, 0x0, 0x0, 0x30, 0x0, 0x0, 0x0, 0x2, 0x0, 0x0, 0x0, 0x1e, 0x0, 0x0, 0x0, 0x8, 0x0, 0x0, 0x0, 0x18, 0x0, 0x0, 0x0, 0x64, 0x65, 0x6e, 0x73, 0x65, 0x5f, 0x34, 0x2f, 0x6b, 0x65, 0x72, 0x6e, 0x65, 0x6c, 0x2f, 0x74, 0x72, 0x61, 0x6e, 0x73, 0x70, 0x6f, 0x73, 0x65, 0x0, 0x0, 0x0, 0x0, 0xd4, 0xf9, 0xff, 0xff, 0xc0, 0x3, 0x0, 0x0, 0xa7, 0x59, 0x88, 0x3f, 0xd3, 0xc3, 0x18, 0x40, 0xa, 0xe2, 0xde, 0xbe, 0xb4, 0xcc, 0x83, 0xbf, 0x13, 0xa1, 0x6e, 0x40, 0x67, 0x22, 0x29, 0x3f, 0x61, 0x95, 0xb9, 0x3e, 0x31, 0x46, 0x8a, 0x3e, 0x70, 0x59, 0x91, 0x3e, 0xde, 0x14, 0x86, 0xbe, 0x3d, 0xb9, 0xad, 0x3e, 0xe2, 0x9c, 0xab, 0x3e, 0xb8, 0xc6, 0x24, 0xbd, 0x67, 0x50, 0xac, 0xbe, 0x89, 0x14, 0xf0, 0xbe, 0xb5, 0x3b, 0x1f, 0xbe, 0x61, 0x58, 0xa0, 0x3d, 0x5e, 0xe, 0x6d, 0x3e, 0xaf, 0xf4, 0x74, 0x3e, 0xac, 0x1a, 0x5c, 0xbe, 0xd3, 0x9c, 0x4a, 0xbe, 0x72, 0x34, 0x35, 0x3e, 0x73, 0x95, 0xd2, 0xbe, 0x33, 0xd9, 0xec, 0x3e, 0xfc, 0xbe, 0x92, 0xbd, 0x44, 0x6d, 0x98, 0xbf, 0xbc, 0xe5, 0xfa, 0xbd, 0xb4, 0xe0, 0x5a, 0xbf, 0xf6, 0xec, 0x35, 0xbf, 0x47, 0x62, 0x56, 0x3f, 0xb4, 0x80, 0x49, 0x3e, 0x88, 0x3, 0x6e, 0xbe, 0x41, 0xe9, 0x93, 0xbf, 0x8e, 0x81, 0x45, 0x3f, 0x66, 0xb, 0xda, 0xbf, 0xbe, 0x51, 0x80, 0x3f, 0xba, 0xce, 0x47, 0x3f, 0x14, 0xf0, 0x8d, 0x3f, 0xb0, 0x4c, 0x72, 0xbe, 0xd4, 0xa3, 0x83, 0xbf, 0x0, 0x8e, 0x5, 0x3f, 0x85, 0xef, 0x6e, 0xc0, 0x56, 0xed, 0x28, 0x3f, 0x3c, 0xd8, 0xa0, 0x3f, 0x3d, 0x7, 0x9f, 0x3f, 0xc4, 0x57, 0x31, 0xc0, 0xf4, 0xbc, 0x27, 0x40, 0x6c, 0x13, 0x3a, 0xc0, 0xdd, 0xcf, 0xba, 0x3f, 0xb3, 0xe, 0x7b, 0xbf, 0x42, 0x7b, 0xc1, 0x3f, 0x65, 0xf0, 0xa5, 0x3f, 0xdc, 0x40, 0x5d, 0xc0, 0x9, 0x49, 0x70, 0x3f, 0x3, 0x12, 0x92, 0x3f, 0x6c, 0xc0, 0x1c, 0x3f, 0x5a, 0xd5, 0x85, 0x3f, 0xf8, 0x93, 0x25, 0x3f, 0x53, 0xc6, 0xfd, 0x3f, 0xfb, 0xfa, 0x61, 0x3f, 0x6f, 0x96, 0x4, 0xbc, 0xe7, 0x9d, 0xa1, 0x3f, 0xcb, 0x68, 0xe, 0x3e, 0xa2, 0x32, 0x3, 0xbf, 0xbb, 0x85, 0x2a, 0xbf, 0x68, 0x11, 0x2d, 0xbe, 0x8f, 0xc4, 0x91, 0xbe, 0x82, 0x59, 0x5b, 0x3f, 0x7f, 0x80, 0xd8, 0x3e, 0x96, 0x30, 0x91, 0x3e, 0x19, 0xf, 0x94, 0x3f, 0x6d, 0x4f, 0x8d, 0xbf, 0x40, 0xec, 0x57, 0xbe, 0x23, 0x8, 0xb4, 0x3f, 0x6e, 0xc6, 0x13, 0x3f, 0xae, 0x9e, 0x23, 0x3f, 0x42, 0xed, 0x63, 0x3f, 0x5e, 0x72, 0xf0, 0xbf, 0x3e, 0x79, 0xe0, 0x3e, 0x75, 0x6d, 0x9b, 0x3e, 0xc6, 0x16, 0x31, 0x3f, 0x83, 0x75, 0xfa, 0x3d, 0x94, 0xb8, 0xb8, 0x3f, 0xa8, 0x45, 0xde, 0xbe, 0x5c, 0x42, 0x94, 0xbf, 0x9c, 0xbb, 0xd6, 0xbf, 0x25, 0x46, 0x45, 0xbe, 0x77, 0xb6, 0x8e, 0x3f, 0x26, 0xf1, 0x52, 0xc0, 0x31, 0xf9, 0x40, 0x40, 0x1c, 0xa8, 0x22, 0x3f, 0x99, 0xfe, 0x2e, 0xc0, 0xf, 0x89, 0xe3, 0xbf, 0x25, 0xdc, 0xd2, 0x3f, 0xfc, 0x99, 0x82, 0xbf, 0x5, 0xd0, 0x48, 0xbf, 0x37, 0xab, 0xa, 0xc0, 0x95, 0xba, 0x31, 0xbf, 0x96, 0x5b, 0x3e, 0xbd, 0xe7, 0xa3, 0xdc, 0xbe, 0xce, 0x76, 0x88, 0x3f, 0x31, 0xc2, 0x70, 0xbf, 0xbc, 0x98, 0x3f, 0xbf, 0xf3, 0x37, 0xb1, 0xbe, 0xec, 0x67, 0x73, 0xbe, 0x1f, 0x68, 0xd7, 0xbe, 0x21, 0x83, 0xd0, 0xbf, 0xa1, 0xf6, 0x7a, 0xbf, 0x76, 0x83, 0xac, 0xbe, 0x70, 0x7f, 0x37, 0xbf, 0x7f, 0xb2, 0x27, 0x3f, 0x6b, 0x31, 0xd9, 0x3e, 0x44, 0x87, 0x69, 0x3f, 0x87, 0x51, 0x8f, 0x3d, 0x4, 0x72, 0x5, 0xbe, 0x33, 0x9b, 0x2c, 0xbf, 0x98, 0xb5, 0xb, 0x3e, 0x6e, 0x77, 0x87, 0xbe, 0x52, 0xa, 0x7, 0x3e, 0xc2, 0xa4, 0x24, 0xbf, 0xb2, 0x1, 0xaf, 0xbd, 0x7a, 0xa0, 0x5b, 0xbf, 0x45, 0x4a, 0x81, 0xbf, 0x25, 0xb4, 0xde, 0xbd, 0xc3, 0xa3, 0x42, 0xbf, 0x42, 0xa3, 0xe4, 0x3f, 0x17, 0xd4, 0x88, 0xbf, 0x53, 0xc, 0x11, 0x3e, 0xad, 0x12, 0x4a, 0xbe, 0x32, 0x46, 0xd0, 0x3e, 0xc5, 0x32, 0xf6, 0xbe, 0xe4, 0x9b, 0x86, 0x3f, 0xe0, 0x82, 0xac, 0x3f, 0x2a, 0x88, 0x17, 0x40, 0x6f, 0xb, 0x52, 0x3e, 0x6f, 0xe3, 0x4f, 0xbf, 0xa0, 0xdd, 0x24, 0x40, 0xeb, 0x1, 0xa5, 0x3e, 0xb6, 0x6b, 0x59, 0xc0, 0xf8, 0xc7, 0x68, 0x40, 0x42, 0x3a, 0xf8, 0x3e, 0x18, 0x98, 0xbc, 0xbf, 0xfc, 0x24, 0xc3, 0xbf, 0x0, 0x4f, 0xa5, 0x3f, 0xec, 0xeb, 0x2f, 0x40, 0x70, 0xbc, 0x28, 0x40, 0x49, 0x30, 0xb, 0xc0, 0x1b, 0x62, 0x58, 0xbf, 0xa, 0xcc, 0xbe, 0xbf, 0x4b, 0x9b, 0x79, 0x3d, 0x96, 0x9c, 0x48, 0x3f, 0x6b, 0xa, 0x7e, 0xbe, 0x71, 0xc8, 0x58, 0xbf, 0x6b, 0x9b, 0xa4, 0x3f, 0x13, 0x1e, 0x7c, 0x3f, 0xa1, 0xc2, 0xa8, 0x3f, 0x13, 0x53, 0xe3, 0xbd, 0xe3, 0xc6, 0x2, 0x3e, 0x4e, 0x82, 0x4c, 0xbe, 0xaa, 0xc3, 0x91, 0xbe, 0xf, 0x2e, 0xa3, 0xbe, 0xc5, 0x68, 0x1c, 0xbc, 0xaf, 0xfa, 0xc8, 0x3e, 0xe8, 0x24, 0xf0, 0x3e, 0xc5, 0xc1, 0x19, 0xbf, 0x38, 0x3d, 0x59, 0x3c, 0x1e, 0x57, 0x90, 0xbf, 0x74, 0xdf, 0xba, 0x3f, 0x67, 0x4a, 0x95, 0x3e, 0xd5, 0x16, 0xb2, 0x3e, 0xe0, 0x21, 0x70, 0x3f, 0x5d, 0xc2, 0x58, 0xbe, 0xef, 0xbc, 0xb9, 0x3e, 0xd0, 0xbe, 0x99, 0xbe, 0x53, 0xb5, 0xb8, 0x3d, 0x63, 0x5d, 0x2c, 0xbe, 0x4c, 0x8d, 0x85, 0xbf, 0x75, 0x0, 0x8e, 0xbe, 0x59, 0x16, 0x82, 0xbe, 0xa0, 0xea, 0x3e, 0xbf, 0xa9, 0xa7, 0x8d, 0xbe, 0x80, 0x74, 0xc6, 0xbf, 0x7a, 0xeb, 0x79, 0xbe, 0xe9, 0xd5, 0xae, 0x3e, 0x5f, 0x9c, 0x78, 0xbf, 0x95, 0xb4, 0x33, 0xbe, 0x4c, 0xf7, 0xa, 0x40, 0x92, 0xa3, 0x18, 0xc0, 0x4, 0x15, 0x62, 0x3e, 0x1e, 0x8f, 0xc8, 0x3e, 0x98, 0x95, 0x76, 0x40, 0xc3, 0x58, 0xbf, 0x3f, 0xb1, 0x10, 0xb, 0xbf, 0xf4, 0x26, 0x3b, 0xc0, 0xb0, 0xaa, 0xc1, 0x3f, 0x15, 0xf5, 0xb8, 0x3e, 0x8d, 0xe3, 0xcc, 0x3f, 0xf, 0xf1, 0x71, 0xbf, 0xd3, 0xda, 0x1, 0xc0, 0x3, 0x8a, 0x18, 0x40, 0xb9, 0x27, 0x55, 0x3e, 0x75, 0xc4, 0x4e, 0xbf, 0x37, 0x34, 0x38, 0xbf, 0x40, 0xb2, 0x62, 0xbf, 0x2a, 0x64, 0x6e, 0xbe, 0x2d, 0xaa, 0x7e, 0x3d, 0x32, 0x9a, 0x6, 0xbf, 0xce, 0xda, 0x6, 0x3f, 0xc4, 0xcf, 0xb0, 0xbd, 0xae, 0xc3, 0x8a, 0xbe, 0xc0, 0x43, 0x2e, 0xbe, 0x55, 0x99, 0x56, 0x3e, 0xb9, 0xfd, 0x1a, 0xbd, 0xb2, 0x6c, 0x9e, 0x3e, 0xf7, 0x61, 0x20, 0x3d, 0x27, 0x6, 0xab, 0xbe, 0x3d, 0x76, 0xd8, 0xbe, 0x18, 0x23, 0x87, 0x3d, 0xe2, 0x3f, 0x3e, 0xbf, 0xff, 0x19, 0x44, 0x3e, 0xc6, 0x21, 0x1, 0x3e, 0xea, 0x45, 0x3d, 0xbe, 0xce, 0xd8, 0x93, 0x3e, 0x8c, 0x84, 0xe3, 0x3d, 0x81, 0xf7, 0x48, 0x3f, 0xe8, 0xe7, 0xa3, 0xbe, 0xa0, 0x89, 0x1c, 0x3d, 0x2, 0x77, 0x1c, 0xbe, 0x24, 0xb5, 0xbe, 0xbd, 0xf0, 0x26, 0x79, 0x3e, 0xdd, 0xa6, 0x2d, 0x3f, 0xf9, 0x70, 0xf3, 0xbe, 0x81, 0x7, 0xda, 0x3f, 0x88, 0xf4, 0x90, 0xbf, 0x36, 0x98, 0x41, 0x3f, 0x1, 0x47, 0x77, 0xbf, 0xff, 0x4e, 0x2f, 0xbf, 0x3, 0xe7, 0x60, 0xbf, 0x33, 0xd1, 0x6e, 0xc0, 0x95, 0xda, 0x6e, 0xc0, 0xc2, 0xff, 0xff, 0xff, 0x10, 0x0, 0x0, 0x0, 0x2, 0x0, 0x0, 0x0, 0x14, 0x0, 0x0, 0x0, 0x28, 0x0, 0x0, 0x0, 0x2, 0x0, 0x0, 0x0, 0x1, 0x0, 0x0, 0x0, 0x8, 0x0, 0x0, 0x0, 0xc, 0x0, 0x0, 0x0, 0x64, 0x65, 0x6e, 0x73, 0x65, 0x5f, 0x32, 0x2f, 0x54, 0x61, 0x6e, 0x68, 0x0, 0x0, 0x0, 0x0, 0x4, 0x0, 0x6, 0x0, 0x4, 0x0, 0x0, 0x0, 0x0, 0x0, 0xe, 0x0, 0x14, 0x0, 0x4, 0x0, 0x0, 0x0, 0x8, 0x0, 0xc, 0x0, 0x10, 0x0, 0xe, 0x0, 0x0, 0x0, 0x10, 0x0, 0x0, 0x0, 0x1, 0x0, 0x0, 0x0, 0x14, 0x0, 0x0, 0x0, 0x24, 0x0, 0x0, 0x0, 0x2, 0x0, 0x0, 0x0, 0x1, 0x0, 0x0, 0x0, 0x1e, 0x0, 0x0, 0x0, 0x7, 0x0, 0x0, 0x0, 0x69, 0x6e, 0x70, 0x75, 0x74, 0x5f, 0x31, 0x0, 0x8, 0x0, 0xc, 0x0, 0x4, 0x0, 0x8, 0x0, 0x8, 0x0, 0x0, 0x0, 0x10, 0x0, 0x0, 0x0, 0x4, 0x0, 0x0, 0x0, 0x1, 0x0, 0x0, 0x0, 0x0, 0x0, 0x7f, 0x43, 0x1, 0x0, 0x0, 0x0, 0x0, 0x0, 0x0, 0x0, 0x8, 0x0, 0x0, 0x0, 0x90, 0x1, 0x0, 0x0, 0x50, 0x1, 0x0, 0x0, 0x0, 0x1, 0x0, 0x0, 0xd4, 0x0, 0x0, 0x0, 0x98, 0x0, 0x0, 0x0, 0x6c, 0x0, 0x0, 0x0, 0x30, 0x0, 0x0, 0x0, 0x4, 0x0, 0x0, 0x0, 0xe0, 0xfe, 0xff, 0xff, 0x1, 0x0, 0x0, 0x0, 0xc, 0x0, 0x0, 0x0, 0x10, 0x0, 0x0, 0x0, 0x14, 0x0, 0x0, 0x0, 0x1, 0x0, 0x0, 0x0, 0xc, 0x0, 0x0, 0x0, 0x1, 0x0, 0x0, 0x0, 0xe, 0x0, 0x0, 0x0, 0x0, 0x0, 0x0, 0x0, 0xcc, 0xfe, 0xff, 0xff, 0x0, 0x0, 0x0, 0x8, 0x10, 0x0, 0x0, 0x0, 0x1c, 0x0, 0x0, 0x0, 0x24, 0x0, 0x0, 0x0, 0x1c, 0x0, 0x0, 0x0, 0x3, 0x0, 0x0, 0x0, 0xa, 0x0, 0x0, 0x0, 0xf, 0x0, 0x0, 0x0, 0xd, 0x0, 0x0, 0x0, 0x1, 0x0, 0x0, 0x0, 0xc, 0x0, 0x0, 0x0, 0x0, 0x0, 0x0, 0x0, 0xb8, 0xfe, 0xff, 0xff, 0x40, 0xff, 0xff, 0xff, 0x1, 0x0, 0x0, 0x0, 0xc, 0x0, 0x0, 0x0, 0x10, 0x0, 0x0, 0x0, 0x14, 0x0, 0x0, 0x0, 0x1, 0x0, 0x0, 0x0, 0x8, 0x0, 0x0, 0x0, 0x1, 0x0, 0x0, 0x0, 0xa, 0x0, 0x0, 0x0, 0x0, 0x0, 0x0, 0x0, 0x2c, 0xff, 0xff, 0xff, 0x0, 0x0, 0x0, 0x8, 0x10, 0x0, 0x0, 0x0, 0x1c, 0x0, 0x0, 0x0, 0x24, 0x0, 0x0, 0x0, 0x1c, 0x0, 0x0, 0x0, 0x3, 0x0, 0x0, 0x0, 0x6, 0x0, 0x0, 0x0, 0xb, 0x0, 0x0, 0x0, 0x9, 0x0, 0x0, 0x0, 0x1, 0x0, 0x0, 0x0, 0x8, 0x0, 0x0, 0x0, 0x0, 0x0, 0x0, 0x0, 0x18, 0xff, 0xff, 0xff, 0xa0, 0xff, 0xff, 0xff, 0x1, 0x0, 0x0, 0x0, 0xc, 0x0, 0x0, 0x0, 0x10, 0x0, 0x0, 0x0, 0x14, 0x0, 0x0, 0x0, 0x1, 0x0, 0x0, 0x0, 0x4, 0x0, 0x0, 0x0, 0x1, 0x0, 0x0, 0x0, 0x6, 0x0, 0x0, 0x0, 0x0, 0x0, 0x0, 0x0, 0x8c, 0xff, 0xff, 0xff, 0x0, 0x0, 0x0, 0x8, 0x10, 0x0, 0x0, 0x0, 0x1c, 0x0, 0x0, 0x0, 0x24, 0x0, 0x0, 0x0, 0x1c, 0x0, 0x0, 0x0, 0x3, 0x0, 0x0, 0x0, 0x2, 0x0, 0x0, 0x0, 0x7, 0x0, 0x0, 0x0, 0x5, 0x0, 0x0, 0x0, 0x1, 0x0, 0x0, 0x0, 0x4, 0x0, 0x0, 0x0, 0x0, 0x0, 0x0, 0x0, 0x78, 0xff, 0xff, 0xff, 0x14, 0x0, 0x14, 0x0, 0x4, 0x0, 0x8, 0x0, 0xc, 0x0, 0x0, 0x0, 0x0, 0x0, 0x0, 0x0, 0x0, 0x0, 0x10, 0x0, 0x14, 0x0, 0x0, 0x0, 0x1, 0x0, 0x0, 0x0, 0xc, 0x0, 0x0, 0x0, 0x10, 0x0, 0x0, 0x0, 0x14, 0x0, 0x0, 0x0, 0x1, 0x0, 0x0, 0x0, 0x0, 0x0, 0x0, 0x0, 0x1, 0x0, 0x0, 0x0, 0x2, 0x0, 0x0, 0x0, 0x0, 0x0, 0x0, 0x0, 0x14, 0x0, 0x18, 0x0, 0x0, 0x0, 0x8, 0x0, 0xc, 0x0, 0x7, 0x0, 0x10, 0x0, 0x0, 0x0, 0x0, 0x0, 0x14, 0x0, 0x14, 0x0, 0x0, 0x0, 0x0, 0x0, 0x0, 0x8, 0x10, 0x0, 0x0, 0x0, 0x1c, 0x0, 0x0, 0x0, 0x28, 0x0, 0x0, 0x0, 0x1c, 0x0, 0x0, 0x0, 0x3, 0x0, 0x0, 0x0, 0x10, 0x0, 0x0, 0x0, 0x3, 0x0, 0x0, 0x0, 0x1, 0x0, 0x0, 0x0, 0x1, 0x0, 0x0, 0x0, 0x0, 0x0, 0x0, 0x0, 0x0, 0x0, 0x0, 0x0, 0x4, 0x0, 0x4, 0x0, 0x4, 0x0, 0x0, 0x0, 0x2, 0x0, 0x0, 0x0, 0x10, 0x0, 0x0, 0x0, 0x4, 0x0, 0x0, 0x0, 0xc6, 0xff, 0xff, 0xff, 0x0, 0x0, 0x0, 0x1c, 0xce, 0xff, 0xff, 0xff, 0x0, 0x0, 0x0, 0x9, 0xd6, 0xff, 0xff, 0xff, 0x0, 0x0, 0x0, 0x1c, 0xde, 0xff, 0xff, 0xff, 0x0, 0x0, 0x0, 0x9, 0xe6, 0xff, 0xff, 0xff, 0x0, 0x0, 0x0, 0x1c, 0xfa, 0xff, 0xff, 0xff, 0x0, 0x9, 0x6, 0x0, 0x6, 0x0, 0x5, 0x0, 0x6, 0x0, 0x0, 0x0, 0x0, 0x1c, 0x6, 0x0, 0x8, 0x0, 0x7, 0x0, 0x6, 0x0, 0x0, 0x0, 0x0, 0x0, 0x0, 0x9};
unsigned int adt_model_len = 5912;
