/*
 * Copyright 2018 NXP
 * All rights reserved.
 *
 * SPDX-License-Identifier: BSD-3-Clause
 */

// This is a standard TensorFlow Lite model file that has been converted into
// a C data array, so it can be easily compiled into a binary for devices that
// don't have a file system. It was created using the command
// (with additional modification for alignment specification):
// xxd -i cifar10.tflite > cifar10_model.h

#include <cmsis_compiler.h>

const char cifar10_model[] __ALIGNED(16) = {
  0x1c, 0x00, 0x00, 0x00, 0x54, 0x46, 0x4c, 0x33, 0x00, 0x00, 0x00, 0x00,
  0x00, 0x00, 0x0e, 0x00, 0x18, 0x00, 0x04, 0x00, 0x08, 0x00, 0x0c, 0x00,
  0x10, 0x00, 0x14, 0x00, 0x0e, 0x00, 0x00, 0x00, 0x03, 0x00, 0x00, 0x00,
  0x10, 0x6c, 0x01, 0x00, 0x0c, 0x00, 0x00, 0x00, 0x10, 0x00, 0x00, 0x00,
  0x20, 0x00, 0x00, 0x00, 0x01, 0x00, 0x00, 0x00, 0x74, 0x60, 0x01, 0x00,
  0x0f, 0x00, 0x00, 0x00, 0x54, 0x4f, 0x43, 0x4f, 0x20, 0x43, 0x6f, 0x6e,
  0x76, 0x65, 0x72, 0x74, 0x65, 0x64, 0x2e, 0x00, 0x12, 0x00, 0x00, 0x00,
  0x54, 0x60, 0x01, 0x00, 0x44, 0x38, 0x01, 0x00, 0x34, 0x37, 0x01, 0x00,
  0x24, 0x6f, 0x00, 0x00, 0x94, 0x6e, 0x00, 0x00, 0x84, 0x0a, 0x00, 0x00,
  0x14, 0x01, 0x00, 0x00, 0x0c, 0x01, 0x00, 0x00, 0xd4, 0x00, 0x00, 0x00,
  0xcc, 0x00, 0x00, 0x00, 0xc4, 0x00, 0x00, 0x00, 0xbc, 0x00, 0x00, 0x00,
  0xb4, 0x00, 0x00, 0x00, 0x24, 0x00, 0x00, 0x00, 0x1c, 0x00, 0x00, 0x00,
  0x14, 0x00, 0x00, 0x00, 0x0c, 0x00, 0x00, 0x00, 0x04, 0x00, 0x00, 0x00,
  0x4c, 0x96, 0xfe, 0xff, 0x50, 0x96, 0xfe, 0xff, 0x54, 0x96, 0xfe, 0xff,
  0x58, 0x96, 0xfe, 0xff, 0xa2, 0x96, 0xfe, 0xff, 0x04, 0x00, 0x00, 0x00,
  0x80, 0x00, 0x00, 0x00, 0x90, 0x9a, 0xff, 0xff, 0x06, 0xf2, 0xff, 0xff,
  0x51, 0xf5, 0xff, 0xff, 0x1d, 0xd2, 0xff, 0xff, 0x7f, 0xf6, 0xff, 0xff,
  0x6e, 0xed, 0xff, 0xff, 0x6f, 0xe9, 0xff, 0xff, 0x9d, 0xb1, 0xff, 0xff,
  0x99, 0xf5, 0xff, 0xff, 0xd1, 0xf5, 0xff, 0xff, 0xde, 0xea, 0xff, 0xff,
  0x27, 0xec, 0xff, 0xff, 0xd8, 0xef, 0xff, 0xff, 0x44, 0xcb, 0xff, 0xff,
  0xdd, 0xdd, 0xff, 0xff, 0x12, 0xcb, 0xff, 0xff, 0x9a, 0xeb, 0xff, 0xff,
  0x9b, 0xdb, 0xff, 0xff, 0x4e, 0xfd, 0xff, 0xff, 0x85, 0xec, 0xff, 0xff,
  0xa7, 0xe4, 0xff, 0xff, 0x82, 0x07, 0x00, 0x00, 0x04, 0xe8, 0xff, 0xff,
  0x62, 0xe1, 0xff, 0xff, 0xf1, 0xf1, 0xff, 0xff, 0xfe, 0xc2, 0xff, 0xff,
  0x39, 0xf1, 0xff, 0xff, 0xf9, 0xd3, 0xff, 0xff, 0xda, 0xbe, 0xff, 0xff,
  0x8e, 0xc4, 0xff, 0xff, 0x95, 0xc0, 0xff, 0xff, 0xef, 0xe1, 0xff, 0xff,
  0xe8, 0x96, 0xfe, 0xff, 0xec, 0x96, 0xfe, 0xff, 0xf0, 0x96, 0xfe, 0xff,
  0xf4, 0x96, 0xfe, 0xff, 0x3e, 0x97, 0xfe, 0xff, 0x04, 0x00, 0x00, 0x00,
  0x28, 0x00, 0x00, 0x00, 0xdf, 0x08, 0x00, 0x00, 0xa4, 0xee, 0xff, 0xff,
  0xfe, 0xfc, 0xff, 0xff, 0x00, 0x0e, 0x00, 0x00, 0x67, 0x03, 0x00, 0x00,
  0x2d, 0x05, 0x00, 0x00, 0xf4, 0x08, 0x00, 0x00, 0x31, 0xff, 0xff, 0xff,
  0x92, 0xf8, 0xff, 0xff, 0xdc, 0xf3, 0xff, 0xff, 0x2c, 0x97, 0xfe, 0xff,
  0x76, 0x97, 0xfe, 0xff, 0x04, 0x00, 0x00, 0x00, 0x60, 0x09, 0x00, 0x00,
  0x96, 0x96, 0x9b, 0x7e, 0x8f, 0x89, 0x91, 0x93, 0x7f, 0x8d, 0x89, 0x7f,
  0xa9, 0xa4, 0x95, 0xa7, 0x94, 0x96, 0xa6, 0x92, 0x9e, 0x82, 0x71, 0x79,
  0x8f, 0x7a, 0x84, 0xae, 0xa7, 0xaa, 0x92, 0x89, 0x7e, 0xa1, 0x95, 0x95,
  0x9b, 0x89, 0x90, 0xa1, 0x95, 0x90, 0xa0, 0x9f, 0xa0, 0x95, 0x9d, 0x8f,
  0x97, 0x8e, 0x8b, 0x98, 0x9a, 0x91, 0xa4, 0x9e, 0xa2, 0x74, 0x8d, 0x88,
  0x93, 0xa4, 0x96, 0x8a, 0x99, 0x9e, 0x9a, 0xa0, 0xa8, 0x9e, 0xa5, 0xa7,
  0x7d, 0x9d, 0x9e, 0x85, 0x9b, 0x91, 0x80, 0xa0, 0x99, 0xac, 0x91, 0x9f,
  0x91, 0x60, 0x7d, 0x82, 0xac, 0x9e, 0x8e, 0xa2, 0x8f, 0x7b, 0x93, 0x86,
  0xd0, 0xb1, 0xba, 0x70, 0x3d, 0x55, 0x98, 0xc5, 0xb0, 0x7f, 0xa8, 0x94,
  0x7d, 0x84, 0x7d, 0xe8, 0xbd, 0xd1, 0x56, 0x31, 0x3d, 0xa5, 0xc7, 0xb9,
  0x83, 0xb5, 0x8a, 0x86, 0x8d, 0x77, 0xd4, 0xa3, 0xbf, 0x5d, 0x4a, 0x5b,
  0x9b, 0xb2, 0xb0, 0x84, 0x98, 0x95, 0x9b, 0x97, 0x88, 0xb6, 0x88, 0xa4,
  0x7e, 0x68, 0x7a, 0x91, 0x9b, 0xae, 0x99, 0x9e, 0x94, 0x8c, 0x7e, 0x7f,
  0x96, 0x63, 0x78, 0xda, 0xb2, 0xbe, 0x73, 0x91, 0x82, 0x80, 0x9e, 0x81,
  0xb7, 0xcf, 0xc2, 0x47, 0x37, 0x48, 0xb0, 0x82, 0x93, 0xc2, 0xa5, 0xaf,
  0x72, 0x97, 0x84, 0x92, 0xb7, 0xa8, 0xb5, 0xd5, 0xd5, 0x26, 0x11, 0x30,
  0xcb, 0x9f, 0xb9, 0x9c, 0xb5, 0x9f, 0x68, 0x72, 0x66, 0xc4, 0xc8, 0xc9,
  0x8a, 0x94, 0x8e, 0x8a, 0x57, 0x88, 0x82, 0x9e, 0x7f, 0x96, 0xa3, 0x90,
  0x80, 0x93, 0x94, 0x9e, 0xba, 0xac, 0x8e, 0x76, 0x84, 0x94, 0x91, 0x9b,
  0xab, 0x8d, 0x81, 0xd3, 0x93, 0x6e, 0xc0, 0x86, 0x6e, 0x9f, 0x98, 0x92,
  0x9f, 0x8f, 0x8e, 0xaf, 0x91, 0x6e, 0xc4, 0x8b, 0x71, 0x9a, 0x83, 0x81,
  0x6e, 0x95, 0x9d, 0x9c, 0x86, 0x93, 0xb2, 0x82, 0x7c, 0xab, 0x8e, 0x83,
  0x76, 0x86, 0x8e, 0x63, 0x94, 0xae, 0x9b, 0x88, 0x9b, 0xa7, 0x7f, 0x91,
  0x9c, 0x8f, 0x92, 0x70, 0x90, 0xa1, 0x60, 0x9a, 0xb3, 0x7a, 0x93, 0x9b,
  0x84, 0x8b, 0x96, 0x7d, 0x97, 0x9d, 0x67, 0x9e, 0xa8, 0x6f, 0xb2, 0xac,
  0xb3, 0x91, 0x72, 0x91, 0x8f, 0x9e, 0x7d, 0x8e, 0xa8, 0x8b, 0x9a, 0x8e,
  0x8f, 0x8f, 0x91, 0xc5, 0x8a, 0x5b, 0xab, 0x7e, 0x85, 0x74, 0x98, 0xb8,
  0x7d, 0xa5, 0x9d, 0x86, 0x93, 0x9b, 0xd0, 0x89, 0x42, 0xb0, 0x82, 0x79,
  0x71, 0x92, 0xbe, 0x6e, 0xa3, 0xba, 0x6f, 0xa0, 0xaa, 0xcf, 0x85, 0x46,
  0xb1, 0x7c, 0x79, 0x73, 0x94, 0xb7, 0x6f, 0xa7, 0xae, 0x71, 0x9f, 0xb9,
  0xbf, 0x8a, 0x62, 0xa5, 0x88, 0x84, 0x7e, 0x8d, 0xa7, 0x80, 0xa2, 0xa5,
  0x76, 0xa0, 0xaa, 0x97, 0x78, 0x6c, 0x98, 0x82, 0x81, 0xa6, 0xa8, 0xb5,
  0x7f, 0x99, 0x97, 0x7d, 0xa0, 0x9c, 0xbc, 0xc3, 0xb4, 0x8b, 0x75, 0x5a,
  0x70, 0x56, 0x49, 0x87, 0x93, 0x7e, 0x9a, 0xb8, 0xa6, 0x82, 0x93, 0xb6,
  0xd8, 0xbc, 0xc2, 0xd0, 0xb9, 0xb6, 0x89, 0x83, 0x74, 0x54, 0x61, 0x67,
  0x67, 0x72, 0x95, 0x6b, 0x68, 0x7c, 0x97, 0x87, 0x89, 0xce, 0xc5, 0xc1,
  0x9f, 0xa2, 0xa1, 0x85, 0x97, 0x9f, 0x9f, 0x9e, 0xba, 0x7f, 0x78, 0x97,
  0x81, 0x6d, 0x73, 0xb1, 0x9c, 0x8e, 0x9b, 0x8c, 0x9d, 0xa4, 0x8b, 0x87,
  0x9d, 0x86, 0x8c, 0x97, 0x84, 0x80, 0xa2, 0x9d, 0x98, 0x74, 0x84, 0x9c,
  0x90, 0xa1, 0x9e, 0x94, 0xa5, 0xaf, 0x8d, 0x90, 0x9b, 0x7a, 0x8d, 0x8e,
  0x7d, 0x99, 0xa3, 0x55, 0x8c, 0x8b, 0x53, 0x79, 0x8e, 0x68, 0x8d, 0x94,
  0x80, 0x9e, 0x99, 0x8d, 0x9b, 0x8f, 0x99, 0x9a, 0x94, 0x8b, 0x9e, 0x9e,
  0x96, 0x9d, 0x95, 0x94, 0x94, 0x85, 0xc0, 0x99, 0x85, 0xbd, 0x95, 0x81,
  0xbd, 0x96, 0x8f, 0xa5, 0x8c, 0x80, 0xc2, 0x96, 0x89, 0x8c, 0xa5, 0x82,
  0x9c, 0xaf, 0x8f, 0x9c, 0x9e, 0x8f, 0x7f, 0x77, 0x64, 0x90, 0x9a, 0x71,
  0x96, 0xa8, 0x7f, 0xa2, 0xa6, 0x9b, 0x8c, 0x9b, 0xa1, 0x65, 0x66, 0x6d,
  0x7f, 0x93, 0x83, 0x9c, 0x99, 0x98, 0x8f, 0x85, 0x96, 0x8e, 0x92, 0xbf,
  0x88, 0x95, 0xce, 0x8d, 0xa4, 0xd1, 0x9e, 0x95, 0x7f, 0x86, 0x7d, 0x81,
  0x92, 0x91, 0xab, 0x92, 0x97, 0xbc, 0x78, 0x80, 0xa2, 0xa6, 0x92, 0x84,
  0xa8, 0x84, 0x82, 0xab, 0x98, 0xa0, 0x8b, 0x81, 0xa2, 0x8d, 0x8e, 0xa8,
  0x75, 0xb4, 0x8b, 0x68, 0xb7, 0x93, 0x69, 0xb8, 0x9e, 0x73, 0xc3, 0x78,
  0x86, 0xbe, 0x76, 0x95, 0xa2, 0x7e, 0x85, 0xa8, 0x8f, 0x6d, 0xab, 0xa5,
  0x67, 0xb1, 0x8b, 0x79, 0xbc, 0x92, 0x9d, 0x7e, 0x97, 0x9d, 0x7f, 0x99,
  0x7c, 0x86, 0xc1, 0x6f, 0x88, 0xbd, 0x5e, 0x96, 0xcc, 0xaf, 0x72, 0x8f,
  0xd0, 0x62, 0x78, 0xd4, 0x63, 0x91, 0xae, 0x66, 0x94, 0x8e, 0x77, 0xb3,
  0x9a, 0x8b, 0x97, 0xbe, 0x72, 0x6c, 0xd4, 0x7f, 0x6c, 0xc1, 0x78, 0x6d,
  0x9f, 0x8e, 0x90, 0x72, 0x9c, 0x7a, 0x93, 0xc9, 0x9d, 0x92, 0xbf, 0x8c,
  0x7e, 0x8e, 0x68, 0x8d, 0x93, 0x92, 0x98, 0xd5, 0xa0, 0x62, 0x93, 0x5b,
  0x47, 0x6b, 0x3e, 0xbd, 0xb9, 0x9d, 0xb6, 0x97, 0xbb, 0x57, 0x85, 0x61,
  0x83, 0xa1, 0x79, 0xea, 0xed, 0xe9, 0xb2, 0x96, 0xbb, 0x71, 0x46, 0x8c,
  0xa5, 0xbb, 0x91, 0xc7, 0xbc, 0xbc, 0x79, 0x60, 0x87, 0x5b, 0x2d, 0x6f,
  0xb4, 0x89, 0xbe, 0xa7, 0x89, 0x8a, 0x86, 0x5a, 0x89, 0x9a, 0x62, 0xab,
  0xbd, 0x92, 0xb9, 0x96, 0x7b, 0x90, 0x9e, 0x8a, 0x9d, 0xa3, 0xa4, 0xb2,
  0x92, 0x6e, 0x8d, 0xb9, 0xb1, 0xb5, 0x87, 0x81, 0x8b, 0x7b, 0x76, 0x72,
  0x7b, 0x87, 0x7e, 0x75, 0x64, 0x6d, 0x84, 0x97, 0x71, 0x89, 0x85, 0x80,
  0x9b, 0xaf, 0xb2, 0x96, 0xbf, 0xba, 0x8b, 0xa4, 0xb1, 0x9c, 0xca, 0xb0,
  0x8b, 0xa2, 0xa2, 0x8f, 0x8d, 0x85, 0x87, 0x9b, 0x93, 0x81, 0x8e, 0x8d,
  0x93, 0xb3, 0x98, 0x86, 0x8b, 0x82, 0x9d, 0x83, 0x83, 0xa2, 0x84, 0x90,
  0x8a, 0x6b, 0x82, 0xb1, 0x9a, 0x87, 0x9c, 0x7a, 0x7c, 0x89, 0x8a, 0x90,
  0x94, 0x78, 0x98, 0xa4, 0x7a, 0x90, 0xa5, 0x7d, 0x91, 0x9e, 0x7e, 0x8e,
  0x7b, 0x98, 0x8a, 0x84, 0x8e, 0x8e, 0x9c, 0x82, 0x87, 0xad, 0x88, 0x96,
  0xa6, 0x88, 0x94, 0x7e, 0xa0, 0x96, 0x75, 0x95, 0x94, 0x81, 0x8b, 0x9a,
  0x8c, 0x85, 0x99, 0x8e, 0x81, 0x94, 0x9d, 0xad, 0x8c, 0x87, 0x9d, 0x88,
  0x89, 0x9a, 0x9a, 0x86, 0x89, 0x8d, 0x84, 0x7f, 0x8a, 0x9c, 0xaf, 0x84,
  0x9c, 0xad, 0x91, 0x82, 0x93, 0x89, 0x83, 0x82, 0x8d, 0x9a, 0x96, 0x99,
  0xaf, 0x5d, 0xb5, 0x96, 0x82, 0x93, 0x7b, 0xa8, 0x78, 0x86, 0xc7, 0x86,
  0x77, 0x8d, 0x98, 0x9c, 0x54, 0xb1, 0x96, 0x9e, 0x9d, 0x7d, 0xdf, 0x66,
  0x5c, 0xef, 0x4b, 0x6e, 0xd3, 0x85, 0xbe, 0x52, 0xba, 0x6a, 0x76, 0x83,
  0xb2, 0xff, 0x88, 0x51, 0xe8, 0x19, 0x78, 0xe2, 0x7b, 0xe0, 0x57, 0xcb,
  0x82, 0x5d, 0xa7, 0x7e, 0x99, 0x72, 0x94, 0xdb, 0x72, 0x80, 0xb1, 0x7d,
  0xb7, 0x11, 0x9d, 0xd6, 0x6f, 0xed, 0x84, 0x44, 0xa6, 0xad, 0x81, 0xbf,
  0x93, 0x5a, 0xa7, 0x8c, 0x91, 0x75, 0x88, 0x8f, 0x9e, 0x81, 0x89, 0xa3,
  0x92, 0x97, 0xb7, 0x8f, 0x93, 0x92, 0x95, 0x91, 0x80, 0x84, 0x85, 0x9f,
  0x7a, 0x84, 0xa0, 0x93, 0x9d, 0xbb, 0xa1, 0x9c, 0x93, 0x9b, 0x98, 0x91,
  0x84, 0x89, 0xa8, 0x79, 0x79, 0xa9, 0x86, 0x84, 0xb0, 0xab, 0x86, 0x8e,
  0x9d, 0x90, 0x8c, 0x9a, 0x9b, 0xb1, 0x8c, 0x8d, 0xaf, 0x92, 0x86, 0xa4,
  0xa7, 0x73, 0x75, 0x89, 0x83, 0x60, 0x9b, 0x9c, 0x95, 0x9f, 0xaa, 0xad,
  0xa7, 0x93, 0x96, 0x9c, 0x68, 0x4e, 0xa7, 0x97, 0xa9, 0x86, 0x84, 0xa8,
  0x85, 0x8a, 0xb0, 0x7f, 0x96, 0xc3, 0x89, 0x87, 0xa8, 0xad, 0x92, 0x9c,
  0x8e, 0x84, 0x95, 0x77, 0x80, 0x8e, 0x8a, 0x98, 0x9e, 0xa5, 0x95, 0x8f,
  0x8d, 0x87, 0x98, 0x81, 0x87, 0xa4, 0x8e, 0x92, 0xad, 0x8e, 0x9a, 0xa7,
  0x95, 0x7e, 0x7e, 0x83, 0x8a, 0x84, 0x89, 0x90, 0x9c, 0x94, 0x9f, 0x9c,
  0x8c, 0x94, 0x8b, 0x9f, 0x8e, 0x72, 0x93, 0x9b, 0x76, 0x8f, 0xa1, 0x7c,
  0x94, 0x9b, 0x72, 0x94, 0x95, 0x69, 0xa6, 0x93, 0x64, 0x95, 0x9a, 0x91,
  0x84, 0x7b, 0x70, 0xa8, 0xb0, 0xa2, 0x90, 0xa3, 0x8c, 0x7d, 0x9a, 0x73,
  0xa5, 0xa0, 0xac, 0x8c, 0x74, 0x81, 0xa0, 0x8b, 0x94, 0x9f, 0x97, 0x95,
  0x87, 0x93, 0x89, 0xac, 0x86, 0xab, 0xb5, 0x8e, 0xa9, 0x94, 0x68, 0x85,
  0xa0, 0x64, 0x7c, 0xa6, 0x8e, 0x97, 0xa1, 0x82, 0x9e, 0xb7, 0x84, 0xa8,
  0xa4, 0x5a, 0x8b, 0xb2, 0x83, 0xa7, 0xbc, 0x9b, 0xb0, 0x78, 0x85, 0x9f,
  0x79, 0x6f, 0x8f, 0x91, 0x8a, 0xb6, 0x82, 0x87, 0xa0, 0x7d, 0x93, 0xa4,
  0xa5, 0x96, 0xaa, 0xa5, 0xa3, 0xc4, 0x87, 0x73, 0x8c, 0x72, 0x55, 0x60,
  0xb2, 0x9e, 0xac, 0x84, 0x7b, 0x70, 0x7f, 0x7a, 0x80, 0xcc, 0xcb, 0xe7,
  0xb5, 0xac, 0xbc, 0x73, 0x75, 0x87, 0xa1, 0xb0, 0x90, 0x80, 0x7f, 0x77,
  0x4f, 0x4e, 0x5e, 0x9c, 0xa5, 0xb5, 0x9c, 0xab, 0xba, 0x82, 0x99, 0x76,
  0xb4, 0xbf, 0xa5, 0xa6, 0xa8, 0x9c, 0x77, 0x79, 0x72, 0x78, 0x86, 0x84,
  0x9b, 0xa6, 0x8f, 0x79, 0x8d, 0x73, 0x94, 0x9a, 0x8b, 0x8f, 0x96, 0x8f,
  0x95, 0x9e, 0x9e, 0x87, 0xa6, 0xa1, 0x8a, 0x75, 0x84, 0xb2, 0x6f, 0x7b,
  0xbb, 0x83, 0x99, 0xb2, 0x93, 0x84, 0x74, 0xad, 0x9e, 0x7a, 0x88, 0x91,
  0x9e, 0x77, 0x8c, 0xac, 0x87, 0x9d, 0x8f, 0x80, 0x72, 0x78, 0xbe, 0xb7,
  0x77, 0x95, 0x91, 0x95, 0x73, 0x73, 0xb5, 0xa3, 0xa9, 0x93, 0x92, 0x95,
  0x69, 0xb0, 0xb5, 0x7f, 0x99, 0x88, 0x96, 0x69, 0x67, 0xb2, 0x98, 0xa2,
  0x9a, 0x9c, 0x90, 0x72, 0xb5, 0xb6, 0x81, 0x9d, 0x95, 0x7c, 0x73, 0x74,
  0xa7, 0x9d, 0x9c, 0x9f, 0x94, 0x88, 0x7a, 0xa3, 0x9b, 0x97, 0x93, 0x86,
  0x9e, 0x93, 0x90, 0x9a, 0x91, 0x8d, 0x94, 0x8c, 0x90, 0x95, 0xbe, 0xac,
  0x72, 0x5a, 0x4c, 0xe0, 0xba, 0xcb, 0x69, 0x6c, 0x7c, 0x91, 0x92, 0xa3,
  0x6d, 0x78, 0x58, 0xfe, 0xcd, 0xc1, 0x85, 0x66, 0x9e, 0x4f, 0x61, 0x7a,
  0xa7, 0xb7, 0xad, 0xab, 0x93, 0x75, 0xdc, 0xb1, 0xcc, 0x01, 0x0b, 0x4c,
  0xd1, 0xf7, 0xec, 0x7f, 0x92, 0x67, 0xb5, 0x8f, 0x94, 0x69, 0x60, 0x92,
  0x7f, 0xa2, 0xc6, 0x99, 0xb2, 0x8f, 0x91, 0xa8, 0x5e, 0xaa, 0x91, 0x8a,
  0x9d, 0x98, 0x83, 0xb8, 0xab, 0x85, 0xb6, 0xab, 0x84, 0xb9, 0xa0, 0x84,
  0xa3, 0x86, 0x90, 0x98, 0x97, 0x92, 0x95, 0x9b, 0x98, 0x89, 0x86, 0x93,
  0x92, 0x8a, 0x96, 0x90, 0x82, 0x96, 0x89, 0x84, 0x99, 0x62, 0x72, 0xab,
  0x55, 0x61, 0x92, 0x8c, 0x8e, 0xa3, 0x93, 0x8a, 0x8c, 0x91, 0x94, 0x9d,
  0x8c, 0x98, 0xac, 0x84, 0x88, 0x9e, 0x8a, 0x93, 0x95, 0x8e, 0x9e, 0x8a,
  0x8b, 0x9b, 0x90, 0x8d, 0x98, 0x90, 0x9a, 0xa5, 0x94, 0x91, 0x9e, 0x77,
  0x87, 0x91, 0x92, 0x95, 0x97, 0x8a, 0xb3, 0xac, 0x99, 0xa8, 0xa2, 0x78,
  0x83, 0x95, 0x67, 0x81, 0x8d, 0x96, 0x80, 0x87, 0x99, 0x91, 0x89, 0x94,
  0xb8, 0xa2, 0x96, 0xa0, 0xa5, 0x70, 0x87, 0x86, 0x95, 0x86, 0x99, 0xb3,
  0x8b, 0x89, 0xa9, 0xab, 0x9b, 0xa0, 0xaf, 0x9e, 0x6c, 0x9a, 0x86, 0x7c,
  0x78, 0x87, 0x95, 0x5b, 0x73, 0xa6, 0xa8, 0x98, 0xbe, 0xbc, 0x95, 0x81,
  0xb6, 0xa7, 0x7a, 0x92, 0x95, 0x93, 0x4e, 0x6c, 0x98, 0x61, 0x75, 0xa8,
  0xa6, 0x99, 0xa3, 0x92, 0xad, 0x95, 0x82, 0x9c, 0x8f, 0x92, 0xaa, 0xa8,
  0x8b, 0x81, 0x86, 0xa2, 0x9c, 0x88, 0x98, 0x97, 0x7d, 0x9a, 0x91, 0x7d,
  0x8b, 0x8f, 0x83, 0x9a, 0x88, 0x7f, 0xa7, 0x98, 0x7f, 0x83, 0x8e, 0x9e,
  0x85, 0x9a, 0xa4, 0x80, 0x92, 0xaa, 0x8e, 0x91, 0xaa, 0x8a, 0x88, 0x96,
  0x82, 0x8f, 0x92, 0x89, 0xa3, 0x9d, 0x75, 0x9c, 0xa2, 0x87, 0xa0, 0xaa,
  0x86, 0x84, 0x88, 0x9e, 0x90, 0x9f, 0x8b, 0x81, 0x9a, 0x77, 0x7f, 0xa7,
  0x7d, 0x87, 0xa8, 0x9e, 0x8d, 0xb4, 0xa6, 0x9d, 0xa3, 0xb7, 0x8f, 0x9c,
  0x66, 0x4d, 0x63, 0x95, 0x95, 0x9f, 0x9f, 0xae, 0x8d, 0xb1, 0x9d, 0xa1,
  0x66, 0x54, 0x5a, 0x8a, 0x85, 0x9b, 0xb0, 0xc0, 0xbf, 0x82, 0xa2, 0x7e,
  0x93, 0x76, 0x8f, 0x7e, 0x65, 0x7b, 0xc9, 0xb5, 0xc1, 0x8d, 0x91, 0x9b,
  0x7a, 0xa0, 0x7c, 0x8d, 0x6c, 0x8a, 0x9e, 0x89, 0x9b, 0xae, 0x9b, 0xaf,
  0x7f, 0x8f, 0x8c, 0x84, 0xae, 0x80, 0x98, 0x7a, 0x89, 0x9f, 0xa3, 0xad,
  0x96, 0x99, 0xa0, 0x81, 0x9e, 0x8c, 0x79, 0xa8, 0x7c, 0xc2, 0x90, 0x5b,
  0xc0, 0x77, 0x47, 0xcf, 0x91, 0x51, 0xab, 0x7a, 0x56, 0xad, 0x93, 0x77,
  0xa9, 0x8d, 0x7e, 0xa3, 0x87, 0x70, 0x9f, 0x8a, 0x7c, 0x96, 0x8e, 0x92,
  0x8c, 0x98, 0xa9, 0x73, 0xa3, 0xa8, 0x70, 0x9d, 0xaf, 0x6a, 0xa6, 0xc3,
  0x6b, 0x9e, 0xc6, 0x69, 0x9b, 0xbb, 0x85, 0x9a, 0x95, 0x76, 0x90, 0x9f,
  0x81, 0x9a, 0xad, 0x7d, 0x9a, 0x9d, 0x91, 0xa5, 0x90, 0x87, 0x92, 0xa4,
  0x86, 0x86, 0xa8, 0x8d, 0x96, 0xa6, 0x8e, 0x85, 0x9b, 0x99, 0x96, 0x85,
  0x8f, 0x94, 0xa4, 0x9a, 0x88, 0x9b, 0x93, 0x9a, 0x97, 0x8c, 0x98, 0x86,
  0x83, 0xa2, 0x82, 0x99, 0x9f, 0xaa, 0xa7, 0x8d, 0x94, 0x9e, 0x89, 0x82,
  0x94, 0x8a, 0x7d, 0x8e, 0x8c, 0x7c, 0x8e, 0xa2, 0xb7, 0x99, 0x8b, 0x99,
  0x93, 0x85, 0x8f, 0x92, 0x8e, 0x84, 0x8a, 0x8f, 0x79, 0x8f, 0x9f, 0xaf,
  0x9d, 0x8a, 0x9d, 0x89, 0x8c, 0x92, 0x8c, 0x8a, 0x7f, 0x92, 0x96, 0x7f,
  0x96, 0xaa, 0x96, 0x8b, 0x86, 0x8a, 0x9a, 0x8f, 0x9f, 0x8b, 0x8b, 0x98,
  0x89, 0x95, 0x92, 0x8e, 0x87, 0xa1, 0xab, 0xb9, 0xc1, 0xa0, 0xa0, 0x98,
  0x93, 0xa3, 0xb2, 0x96, 0x9a, 0xa3, 0x84, 0x6b, 0x78, 0x85, 0x90, 0x84,
  0x6f, 0x69, 0x51, 0x86, 0x8d, 0x81, 0x88, 0x81, 0x6c, 0x9a, 0x7d, 0x8b,
  0xa8, 0xba, 0xb3, 0x93, 0x8b, 0x86, 0xa7, 0xaa, 0xad, 0x94, 0x98, 0x92,
  0x81, 0x7e, 0x87, 0x97, 0xac, 0x9a, 0x7d, 0x74, 0x71, 0x8e, 0x97, 0x96,
  0x97, 0x8f, 0x85, 0x89, 0x82, 0x97, 0xa2, 0xb0, 0xad, 0x86, 0x7e, 0x80,
  0x97, 0x98, 0x9a, 0x9a, 0x97, 0x91, 0xa0, 0x9d, 0x97, 0x95, 0x98, 0xa5,
  0x7a, 0x84, 0xaf, 0x81, 0x99, 0xa6, 0x91, 0x8e, 0x71, 0x79, 0x95, 0xb8,
  0x88, 0x95, 0xab, 0x8c, 0x8b, 0xa1, 0x97, 0x90, 0x7a, 0xa6, 0x92, 0x58,
  0x72, 0xa6, 0xe2, 0x7a, 0x80, 0x96, 0x90, 0x74, 0x84, 0x99, 0x90, 0x70,
  0xae, 0xa1, 0x6d, 0x5f, 0x72, 0xa1, 0x8d, 0x76, 0x73, 0xae, 0x94, 0x8a,
  0xab, 0x9f, 0x89, 0x9c, 0xb7, 0x9d, 0x88, 0x77, 0x83, 0xc3, 0xa1, 0x7e,
  0x9c, 0x8b, 0x7f, 0x91, 0x90, 0x92, 0x93, 0xb3, 0xaa, 0x6e, 0xbb, 0x88,
  0x74, 0xb2, 0x95, 0x7d, 0xab, 0x8a, 0x84, 0xaf, 0x7b, 0x86, 0xb6, 0x73,
  0x83, 0x9e, 0xa2, 0x85, 0x98, 0xac, 0x91, 0x8f, 0xa3, 0x8b, 0xa1, 0x9a,
  0x88, 0xb3, 0x8f, 0x90, 0x78, 0x99, 0xa5, 0x56, 0xa5, 0xac, 0x59, 0x95,
  0x92, 0x7e, 0x92, 0x7c, 0xa0, 0x84, 0x9d, 0x70, 0xad, 0xe0, 0x40, 0x9e,
  0xe8, 0x3b, 0x90, 0xab, 0x7c, 0x9b, 0x86, 0xab, 0x91, 0x7f, 0x8b, 0xb6,
  0xb4, 0x5c, 0x9d, 0xcc, 0x53, 0x8b, 0x94, 0x88, 0x92, 0x75, 0xb5, 0x91,
  0xb2, 0x84, 0x94, 0xc6, 0x9e, 0xa3, 0xa7, 0x89, 0x7a, 0x9e, 0x8d, 0x87,
  0x8a, 0x80, 0x93, 0xbd, 0x9e, 0x94, 0x9b, 0x81, 0x6e, 0x89, 0x82, 0x79,
  0x97, 0xa1, 0x9e, 0x84, 0x91, 0x98, 0xc1, 0xb3, 0x9f, 0x70, 0x76, 0x63,
  0x88, 0x9c, 0xa3, 0x80, 0xaa, 0xa1, 0x75, 0x90, 0x8c, 0xaa, 0xaa, 0x8d,
  0x71, 0x89, 0x7e, 0x89, 0xbb, 0xb5, 0x85, 0xa9, 0x97, 0x82, 0x9f, 0x8d,
  0x78, 0x95, 0x87, 0x6e, 0xa0, 0xa3, 0x75, 0xa9, 0xa8, 0x81, 0x9c, 0xa0,
  0x7a, 0x93, 0x9c, 0x81, 0xac, 0x7e, 0x98, 0xc1, 0x87, 0x8c, 0xb3, 0x84,
  0x75, 0x93, 0x7f, 0x96, 0x94, 0x8b, 0x89, 0xaa, 0x89, 0x89, 0xb2, 0x7f,
  0x8d, 0xb4, 0x8f, 0x85, 0xab, 0x96, 0x9a, 0xa1, 0xa2, 0x86, 0x97, 0x8c,
  0x79, 0x86, 0x6b, 0x67, 0x79, 0x69, 0x96, 0xa8, 0x97, 0xa0, 0xa3, 0xa3,
  0x90, 0x90, 0x9d, 0x8e, 0x83, 0x8c, 0x83, 0x79, 0x87, 0x95, 0x95, 0xa4,
  0x9c, 0x9f, 0xa3, 0x98, 0x70, 0xa8, 0xa1, 0x7b, 0xa6, 0x9b, 0x77, 0xa6,
  0x8a, 0x7e, 0x94, 0x86, 0x88, 0x98, 0x6b, 0x75, 0x86, 0x6a, 0x75, 0x79,
  0x97, 0xa8, 0x9c, 0xbe, 0xb9, 0xaa, 0xb5, 0xb8, 0xb4, 0x9a, 0xb7, 0xb5,
  0xaa, 0xc3, 0xaa, 0xa4, 0xb5, 0xa4, 0x7b, 0x6b, 0x6b, 0x60, 0x4d, 0x6d,
  0x99, 0xac, 0x95, 0x8e, 0x91, 0x81, 0x96, 0x91, 0x86, 0x81, 0x6b, 0x6d,
  0x9a, 0x90, 0xa7, 0x91, 0x87, 0x6f, 0x88, 0x7b, 0x6f, 0xae, 0xa5, 0x9f,
  0x9e, 0x9f, 0x94, 0x9d, 0x98, 0xa2, 0x99, 0x8f, 0x91, 0x8d, 0x84, 0x8a,
  0x92, 0x8f, 0xa2, 0x8a, 0x8c, 0x98, 0x81, 0xa3, 0xa3, 0xa6, 0x65, 0xb2,
  0xad, 0x65, 0xc0, 0xa2, 0x62, 0xb4, 0x91, 0x69, 0xa1, 0x87, 0x62, 0x98,
  0xb0, 0x84, 0xa5, 0x94, 0x72, 0x9b, 0x85, 0x6f, 0x82, 0x9c, 0x8d, 0x8e,
  0xad, 0x9a, 0x98, 0x74, 0x79, 0x85, 0x7c, 0x7f, 0x86, 0x9f, 0xb3, 0x9b,
  0xa9, 0xb9, 0xa2, 0x8e, 0x91, 0x88, 0x8b, 0xb9, 0x8a, 0x8d, 0xbc, 0x88,
  0x8a, 0xb6, 0x80, 0x83, 0x9a, 0x74, 0x7f, 0x92, 0x79, 0x8a, 0xc5, 0x80,
  0x81, 0xb6, 0x73, 0x84, 0xad, 0x71, 0x88, 0xad, 0x7b, 0xa0, 0xb4, 0x91,
  0xe2, 0xa0, 0xfe, 0xff, 0x04, 0x00, 0x00, 0x00, 0x00, 0x64, 0x00, 0x00,
  0x93, 0xa0, 0x84, 0x72, 0xa4, 0x75, 0x6d, 0x8c, 0x52, 0x7b, 0x95, 0x84,
  0x61, 0x74, 0x7d, 0x6e, 0x89, 0x86, 0x83, 0x6f, 0x83, 0x70, 0x8e, 0x8c,
  0x85, 0x66, 0x79, 0x6b, 0x7f, 0x7d, 0x86, 0x84, 0x86, 0xa9, 0x7d, 0x68,
  0x7f, 0x6f, 0x6e, 0x7f, 0x71, 0x83, 0x9e, 0x7a, 0x4c, 0x7f, 0x7a, 0x7c,
  0x7d, 0x70, 0x89, 0x8d, 0x55, 0x96, 0x6e, 0x73, 0x94, 0x80, 0x69, 0x6f,
  0x85, 0x6a, 0x7f, 0x87, 0x7c, 0xab, 0x7e, 0x6a, 0x84, 0x6d, 0x6f, 0x77,
  0xa1, 0x87, 0x99, 0x81, 0x52, 0x87, 0x81, 0x74, 0x6d, 0x8e, 0x89, 0x9b,
  0x82, 0x90, 0x7e, 0x80, 0x85, 0x7a, 0x64, 0x8a, 0x8c, 0x75, 0x82, 0x8f,
  0x81, 0x93, 0x81, 0x85, 0x96, 0x79, 0x6f, 0x81, 0x9a, 0x8d, 0x82, 0x8d,
  0x72, 0x73, 0x8f, 0x86, 0x74, 0x85, 0x78, 0x9a, 0x8d, 0x79, 0x78, 0x85,
  0x76, 0x7d, 0x93, 0xb4, 0x8a, 0x74, 0x8c, 0x91, 0x91, 0x8c, 0x80, 0x7b,
  0xa2, 0x74, 0x74, 0x77, 0x6f, 0x7b, 0xa4, 0x99, 0x80, 0x79, 0x87, 0x83,
  0x6a, 0x78, 0x80, 0x9e, 0x8e, 0x7d, 0x99, 0x86, 0x80, 0x72, 0x88, 0xa3,
  0x75, 0x81, 0x93, 0x96, 0x86, 0xa8, 0x87, 0x6f, 0x98, 0xa1, 0x64, 0x80,
  0x42, 0x7f, 0x8c, 0x8d, 0x76, 0x68, 0x73, 0x89, 0x96, 0x84, 0x8c, 0x86,
  0x98, 0x6e, 0x9e, 0x8d, 0x9a, 0x70, 0x7b, 0x6b, 0x9c, 0x88, 0x8a, 0x60,
  0x7a, 0x91, 0x77, 0x7c, 0x82, 0x83, 0x71, 0x8b, 0x82, 0x8f, 0x80, 0x86,
  0x73, 0x71, 0x72, 0x85, 0x82, 0x82, 0x88, 0x6e, 0x64, 0x6e, 0x49, 0x84,
  0x8f, 0x7b, 0x75, 0x75, 0x85, 0x73, 0x7f, 0x78, 0x6b, 0x7d, 0x88, 0x80,
  0x65, 0x8a, 0x85, 0x84, 0xcd, 0xa1, 0x87, 0x73, 0x5e, 0x90, 0x75, 0x97,
  0x73, 0x88, 0x61, 0x76, 0x76, 0x74, 0x65, 0x90, 0x82, 0x72, 0x82, 0xb7,
  0x8e, 0x6b, 0x80, 0x84, 0x89, 0x93, 0x71, 0xad, 0x8c, 0x87, 0x99, 0x73,
  0xd6, 0x8f, 0x75, 0x79, 0x81, 0x8e, 0x80, 0xa0, 0x76, 0x8c, 0x6a, 0x6f,
  0x7f, 0x7c, 0x7b, 0x90, 0x72, 0x7a, 0x91, 0xf5, 0x86, 0x5d, 0x94, 0x9a,
  0x76, 0x92, 0x84, 0x93, 0xb4, 0x74, 0x81, 0x95, 0x70, 0x5b, 0x8c, 0x81,
  0x8e, 0x6a, 0x7b, 0x7b, 0x82, 0x8b, 0x81, 0x80, 0x93, 0x75, 0x8a, 0x7e,
  0x7b, 0x73, 0x8a, 0x98, 0x8e, 0x54, 0x95, 0x81, 0x84, 0x9d, 0x76, 0x67,
  0x95, 0x79, 0x69, 0x61, 0x56, 0x8b, 0x97, 0x84, 0x4d, 0x70, 0x6c, 0x7a,
  0x98, 0x87, 0x89, 0x7c, 0x84, 0x6e, 0x89, 0x70, 0x6b, 0x74, 0x8f, 0x65,
  0x84, 0x85, 0x88, 0x70, 0x6a, 0x76, 0x61, 0x70, 0x7f, 0x70, 0x5d, 0x7f,
  0x76, 0x89, 0x94, 0x87, 0x66, 0x6f, 0x83, 0x82, 0x96, 0x89, 0x88, 0x81,
  0x6e, 0x6d, 0x6e, 0x81, 0x87, 0x87, 0x7e, 0x7b, 0x86, 0x7e, 0x88, 0x84,
  0x71, 0x6d, 0x7a, 0x8e, 0x63, 0x70, 0x73, 0x75, 0x8c, 0x8c, 0x8d, 0x78,
  0x6b, 0x80, 0x7d, 0x89, 0x8a, 0x8f, 0x68, 0x87, 0x7b, 0x86, 0x65, 0x8b,
  0x6e, 0x98, 0x80, 0x99, 0x71, 0x77, 0x85, 0x93, 0x77, 0x70, 0x79, 0xa9,
  0x8b, 0x92, 0x82, 0x63, 0x84, 0x8c, 0x70, 0x72, 0x83, 0x62, 0x8b, 0x8b,
  0x84, 0x86, 0x73, 0x71, 0x79, 0x83, 0x7f, 0x91, 0x54, 0x85, 0x9d, 0xab,
  0x6c, 0x68, 0x84, 0x9d, 0x6e, 0x7b, 0x91, 0x7b, 0xa7, 0x8c, 0x79, 0x77,
  0x5b, 0x70, 0x8f, 0x8f, 0x6a, 0x5c, 0x83, 0x6b, 0x98, 0x85, 0x81, 0x71,
  0x8d, 0x8c, 0x8e, 0x8c, 0x81, 0x7f, 0x78, 0x82, 0x64, 0x6b, 0x84, 0x98,
  0x86, 0x76, 0x81, 0x6d, 0x7d, 0x80, 0x71, 0x59, 0x58, 0x93, 0x86, 0x80,
  0x50, 0x68, 0x79, 0x72, 0x99, 0x80, 0x8c, 0x96, 0x83, 0x8e, 0x8a, 0x85,
  0x84, 0x74, 0x7b, 0x75, 0x7e, 0x7b, 0x7e, 0x8c, 0x7f, 0x70, 0x70, 0x76,
  0x78, 0x7f, 0x7f, 0x63, 0x6d, 0x85, 0x96, 0x7d, 0x78, 0x7f, 0x8c, 0x77,
  0x88, 0x8e, 0x8d, 0x81, 0x70, 0x8d, 0x91, 0x86, 0x93, 0x89, 0x7b, 0x78,
  0x84, 0x7f, 0x89, 0x83, 0x84, 0x75, 0x84, 0x78, 0x81, 0x73, 0x90, 0x6f,
  0x7d, 0x87, 0x9b, 0x80, 0x73, 0x7d, 0x8b, 0x80, 0x8a, 0x77, 0x93, 0x83,
  0x73, 0x7c, 0x71, 0xa2, 0x73, 0x86, 0x8d, 0x7f, 0x8f, 0x8e, 0x7b, 0x94,
  0x75, 0x6a, 0x7d, 0x8d, 0x81, 0x89, 0x80, 0x76, 0x7e, 0x7e, 0x7f, 0x9e,
  0x76, 0x82, 0x7f, 0x82, 0x94, 0x8c, 0x7e, 0x7f, 0x75, 0x88, 0x67, 0xa8,
  0x6e, 0x82, 0x90, 0xa0, 0x71, 0x89, 0x89, 0x9c, 0x7d, 0x7c, 0x81, 0x60,
  0x84, 0x88, 0x8a, 0x86, 0x5c, 0x7a, 0x96, 0x8e, 0x6a, 0x55, 0x75, 0x6f,
  0x82, 0x83, 0x8b, 0x91, 0x73, 0x99, 0x7e, 0x90, 0x97, 0x7d, 0x99, 0x74,
  0x6f, 0x88, 0x8c, 0x8c, 0x8b, 0x6c, 0x86, 0x53, 0x7c, 0x90, 0x85, 0x70,
  0x67, 0x88, 0x81, 0x6d, 0x54, 0x5f, 0x7d, 0x6c, 0x9f, 0x6f, 0x7a, 0x98,
  0x6b, 0x76, 0x82, 0x71, 0x8c, 0x7d, 0x74, 0x73, 0x90, 0x86, 0x79, 0x84,
  0x77, 0x8f, 0x80, 0x63, 0x87, 0x86, 0x86, 0x69, 0x83, 0x84, 0x92, 0x80,
  0x72, 0x86, 0x7b, 0x72, 0x92, 0x81, 0x77, 0x9b, 0x8b, 0x85, 0x8c, 0x66,
  0x96, 0x84, 0x92, 0x72, 0x8a, 0x88, 0x80, 0x87, 0x76, 0x85, 0x8f, 0x84,
  0x84, 0x9a, 0x87, 0x6b, 0x99, 0x88, 0x97, 0x7b, 0x7b, 0x8f, 0x8a, 0x76,
  0x8d, 0x7f, 0x81, 0x95, 0x7b, 0x87, 0x88, 0x76, 0x8c, 0x7c, 0x8b, 0x87,
  0x90, 0x7f, 0x6f, 0x83, 0x71, 0x79, 0x8c, 0x7b, 0x70, 0x8f, 0x77, 0x65,
  0x7e, 0x83, 0x86, 0x8e, 0x7c, 0x8f, 0x80, 0x89, 0x82, 0x81, 0x8a, 0x8a,
  0x81, 0x96, 0x88, 0x99, 0xa0, 0x8a, 0x88, 0x96, 0x81, 0x90, 0x81, 0x87,
  0x7e, 0x7b, 0x78, 0x61, 0x70, 0x84, 0x65, 0x72, 0x7c, 0x77, 0x87, 0x7c,
  0x7a, 0x76, 0x8d, 0x65, 0x81, 0x86, 0x92, 0x89, 0x7c, 0xa3, 0x87, 0x81,
  0xa3, 0x7d, 0x88, 0x79, 0x83, 0x70, 0x8c, 0x8f, 0x90, 0x72, 0x9a, 0x8a,
  0x83, 0x69, 0x6e, 0x83, 0x80, 0x88, 0x63, 0x71, 0x91, 0x94, 0x71, 0x8e,
  0x74, 0xaa, 0x6e, 0x76, 0x71, 0x89, 0x47, 0x80, 0x9e, 0x74, 0x70, 0x77,
  0x6c, 0x6e, 0x8e, 0x75, 0x6d, 0x6f, 0x86, 0x94, 0x73, 0x8d, 0x81, 0x6b,
  0x8c, 0x75, 0x7e, 0xa4, 0xa3, 0x8f, 0x8a, 0x8c, 0x9c, 0x9f, 0x77, 0x83,
  0x6c, 0x8c, 0x46, 0x89, 0xa9, 0x80, 0x6e, 0x8d, 0x8e, 0x7c, 0x7f, 0x7b,
  0x6b, 0x6c, 0x89, 0x88, 0x67, 0x9a, 0x71, 0x6b, 0x8c, 0x88, 0x7f, 0x98,
  0x89, 0x90, 0x8a, 0x80, 0x8f, 0x86, 0x7d, 0x8d, 0x83, 0x80, 0x54, 0x7a,
  0x84, 0x8e, 0x81, 0x81, 0x82, 0x7f, 0x7c, 0x7f, 0x66, 0x81, 0x76, 0x92,
  0x73, 0x8b, 0x73, 0x70, 0x9c, 0x88, 0x8d, 0x8d, 0x93, 0x8e, 0x91, 0x81,
  0x9d, 0x80, 0x84, 0x88, 0x95, 0x77, 0x6b, 0x86, 0x7e, 0x7e, 0x95, 0x82,
  0x77, 0x77, 0x7f, 0x87, 0x7d, 0x69, 0x9a, 0x91, 0x7b, 0x84, 0x8e, 0x8b,
  0xb7, 0x77, 0x9d, 0xa7, 0x86, 0x84, 0x9b, 0x81, 0x9d, 0x7a, 0x79, 0x83,
  0x90, 0x73, 0x5e, 0x91, 0x8b, 0x8a, 0x70, 0x8c, 0x89, 0x74, 0x7f, 0x8e,
  0xa4, 0x83, 0xa8, 0x8a, 0x91, 0x7b, 0x47, 0x7e, 0x76, 0x98, 0x6d, 0x4b,
  0x79, 0x8a, 0x73, 0x8c, 0x6e, 0xa2, 0x84, 0x78, 0x80, 0xa1, 0x5d, 0x7f,
  0x95, 0x7d, 0x90, 0x79, 0x7b, 0x64, 0x92, 0x5c, 0x87, 0x81, 0x9c, 0x84,
  0x85, 0x75, 0x86, 0x6a, 0x70, 0x79, 0x7c, 0x85, 0x84, 0x8a, 0x79, 0x85,
  0x86, 0x9c, 0x84, 0x94, 0x78, 0xa4, 0x5a, 0x82, 0xa2, 0x95, 0x81, 0x7b,
  0x8b, 0x76, 0x87, 0x77, 0x77, 0x6c, 0x89, 0x88, 0x7e, 0x7b, 0x86, 0x6e,
  0x6b, 0x61, 0x72, 0x80, 0x95, 0x82, 0x76, 0x75, 0x93, 0x7d, 0x64, 0x93,
  0x77, 0x83, 0x4c, 0x93, 0xa2, 0x9e, 0x5a, 0x7b, 0x72, 0x83, 0x7b, 0x82,
  0x63, 0x59, 0x5f, 0x81, 0x72, 0xa0, 0x8c, 0x57, 0x7c, 0x6c, 0x6a, 0x92,
  0x8c, 0x8a, 0x7a, 0x7e, 0x82, 0x78, 0x67, 0x71, 0x81, 0x66, 0x59, 0x82,
  0xa0, 0x8e, 0x84, 0x79, 0x67, 0x8e, 0x82, 0x79, 0x5f, 0x55, 0x79, 0x81,
  0x7e, 0x92, 0x9a, 0x56, 0x99, 0x5d, 0x8b, 0xa4, 0x92, 0x7e, 0x7d, 0x6f,
  0x9b, 0x7c, 0x62, 0x8e, 0x98, 0x62, 0x5c, 0x88, 0x95, 0xa9, 0x7b, 0x6d,
  0x7f, 0x89, 0x85, 0x85, 0x91, 0x74, 0x83, 0x7e, 0x98, 0x75, 0x34, 0x7f,
  0x7b, 0xaf, 0x6c, 0x34, 0x70, 0x8c, 0x7c, 0x90, 0x6e, 0x87, 0x96, 0x61,
  0x95, 0xa0, 0x66, 0x64, 0x8f, 0x78, 0x88, 0x7f, 0x85, 0x76, 0x91, 0x6b,
  0x87, 0x8b, 0x80, 0x8d, 0x97, 0x82, 0x79, 0x64, 0x78, 0x8f, 0x83, 0x75,
  0x72, 0x8f, 0x83, 0x96, 0x7e, 0x86, 0x7f, 0x6d, 0x82, 0x98, 0x55, 0x75,
  0x7d, 0x80, 0x89, 0x95, 0x8e, 0x85, 0x8e, 0x81, 0x7c, 0x6a, 0x9a, 0x7c,
  0x8e, 0x83, 0x88, 0x66, 0x87, 0x7f, 0x7c, 0x80, 0x75, 0x81, 0x90, 0x8a,
  0x87, 0x81, 0x93, 0x80, 0x86, 0x86, 0x70, 0x7c, 0xa0, 0x9f, 0x7a, 0x86,
  0x86, 0x8f, 0x77, 0x70, 0x7b, 0x5e, 0x81, 0x80, 0x83, 0x76, 0x8f, 0x5d,
  0x97, 0x5c, 0x73, 0x9f, 0x76, 0x72, 0x8c, 0x80, 0x8d, 0x74, 0x74, 0x85,
  0x8e, 0x64, 0x58, 0x7f, 0xad, 0x94, 0xa0, 0x95, 0x6a, 0x9c, 0x77, 0x75,
  0x6c, 0x7f, 0x9a, 0x7b, 0x94, 0x83, 0xb4, 0x50, 0x7d, 0x4b, 0x7f, 0xac,
  0xa7, 0x74, 0x72, 0x6d, 0xa2, 0x92, 0x72, 0xa4, 0xac, 0x56, 0x59, 0x8e,
  0xa2, 0xb2, 0x8a, 0x77, 0x62, 0xa7, 0x88, 0x8f, 0x93, 0x82, 0x7f, 0x82,
  0x81, 0x5d, 0x6a, 0x89, 0x77, 0x9d, 0x6a, 0x46, 0x74, 0x92, 0x8f, 0x72,
  0x6c, 0x85, 0x8d, 0x63, 0x7f, 0x94, 0x7e, 0x6b, 0x98, 0x67, 0x6b, 0x80,
  0x99, 0x78, 0x78, 0x69, 0x77, 0x7a, 0x7e, 0x71, 0x84, 0x81, 0x80, 0x67,
  0x83, 0xa6, 0x8e, 0x76, 0x74, 0x8e, 0x9a, 0x81, 0x83, 0x82, 0x77, 0x6f,
  0x6f, 0x91, 0x74, 0x74, 0x6e, 0x75, 0x66, 0x89, 0x90, 0x91, 0x8a, 0x84,
  0x72, 0x85, 0x8d, 0x75, 0x90, 0x7f, 0x7b, 0x6a, 0x94, 0x94, 0x7f, 0x87,
  0x6c, 0x7a, 0x95, 0x78, 0x84, 0x7f, 0x7e, 0x75, 0x6e, 0x8b, 0x81, 0x95,
  0x91, 0x85, 0x72, 0x94, 0x7f, 0x81, 0x82, 0x80, 0x7d, 0x93, 0x75, 0x7e,
  0x89, 0x8d, 0x8e, 0x5f, 0x9c, 0x82, 0x72, 0x94, 0x68, 0x71, 0x79, 0x79,
  0x94, 0x7d, 0x7b, 0x86, 0x7d, 0x6a, 0x78, 0x75, 0x93, 0x62, 0x84, 0x87,
  0x74, 0x78, 0x83, 0x87, 0x77, 0x85, 0x82, 0x7d, 0x88, 0x95, 0x84, 0x57,
  0x81, 0x75, 0x78, 0x90, 0x7b, 0x57, 0x69, 0x6b, 0x7e, 0x9a, 0x7f, 0x7e,
  0x91, 0x61, 0x87, 0x78, 0x99, 0x71, 0x75, 0x77, 0x66, 0x91, 0x76, 0x96,
  0x8c, 0x6e, 0x82, 0x78, 0x6d, 0x83, 0x94, 0x85, 0x94, 0x9d, 0x7c, 0x5f,
  0x7f, 0x77, 0x90, 0x8e, 0x7d, 0x6a, 0x99, 0x7d, 0x72, 0x84, 0x84, 0x77,
  0x7f, 0x90, 0x62, 0x90, 0x8e, 0x8f, 0x79, 0x6f, 0x7a, 0x67, 0x78, 0x88,
  0x71, 0x7a, 0x90, 0x60, 0x9a, 0x8d, 0x93, 0x7c, 0x82, 0x89, 0x9e, 0x7d,
  0x8c, 0x7e, 0x8a, 0x79, 0x7e, 0x8f, 0x8a, 0x7b, 0x89, 0x93, 0x67, 0x88,
  0x95, 0x9b, 0x81, 0x84, 0x64, 0x7d, 0x8d, 0x82, 0x88, 0x96, 0x8e, 0x83,
  0xa5, 0x79, 0x8f, 0x99, 0x5a, 0x7e, 0x8f, 0x7f, 0x86, 0x78, 0x8d, 0x87,
  0x8c, 0x8b, 0x76, 0x8a, 0x6d, 0x91, 0x88, 0x89, 0x82, 0x9a, 0x7e, 0x80,
  0x78, 0x7d, 0x87, 0x8e, 0x79, 0x9a, 0x85, 0x70, 0x89, 0x94, 0x7b, 0xa0,
  0x69, 0x81, 0x80, 0x76, 0x84, 0x6f, 0x85, 0x7f, 0x88, 0x8e, 0x6a, 0x87,
  0x7d, 0x6a, 0x91, 0x82, 0x8b, 0x8b, 0x71, 0x79, 0x7d, 0x9a, 0x82, 0x87,
  0x81, 0x98, 0x8c, 0x76, 0x66, 0x75, 0x79, 0x9b, 0x86, 0x6c, 0x5c, 0x81,
  0x92, 0x84, 0x88, 0x74, 0x8c, 0x7c, 0x98, 0x84, 0x7c, 0x78, 0xaa, 0x7f,
  0x68, 0x7b, 0x7a, 0x90, 0x76, 0x88, 0x9d, 0x8a, 0x75, 0x96, 0x70, 0x7e,
  0x6a, 0x91, 0x69, 0x6b, 0x7e, 0xa2, 0x82, 0x88, 0x8c, 0x65, 0x7d, 0xa0,
  0x6f, 0x78, 0x8e, 0x6c, 0x81, 0x6d, 0x77, 0x64, 0x59, 0x84, 0x8b, 0x79,
  0x72, 0x77, 0x8f, 0x81, 0x88, 0x8b, 0x88, 0x82, 0x9f, 0x96, 0x88, 0x76,
  0x6f, 0x85, 0x7d, 0x82, 0x83, 0x82, 0x77, 0x9d, 0x97, 0x7c, 0x85, 0x77,
  0x93, 0x81, 0x93, 0x62, 0x63, 0x7a, 0x86, 0x87, 0x73, 0x75, 0x7f, 0x84,
  0x76, 0xaa, 0x8b, 0x78, 0xa1, 0x8a, 0x8b, 0x7b, 0x92, 0x89, 0x8b, 0x80,
  0x70, 0x9d, 0x56, 0x84, 0x89, 0x75, 0x82, 0x71, 0x6f, 0x6f, 0xad, 0x5e,
  0x68, 0x84, 0xab, 0x7c, 0x60, 0x73, 0x78, 0x6d, 0x7f, 0x91, 0x8d, 0x68,
  0x9b, 0x97, 0x68, 0x6d, 0x96, 0x81, 0x89, 0x7b, 0x8f, 0x9e, 0x6e, 0x74,
  0x93, 0x62, 0xa6, 0x88, 0x7b, 0x7a, 0x8e, 0x56, 0x84, 0x8d, 0x83, 0x7c,
  0x75, 0x84, 0x78, 0x5f, 0x80, 0x80, 0xa0, 0x6e, 0xaa, 0x8c, 0x8f, 0x70,
  0xa8, 0x80, 0x93, 0x8f, 0x86, 0x73, 0x71, 0x5a, 0x7b, 0x61, 0x8c, 0x82,
  0x79, 0x70, 0x7f, 0x82, 0x8a, 0x91, 0x7f, 0x74, 0x8b, 0x70, 0x98, 0x8f,
  0x87, 0x9b, 0x75, 0x74, 0x55, 0xa6, 0x78, 0x88, 0x4c, 0x8a, 0x7e, 0x9e,
  0x84, 0x69, 0x85, 0x75, 0x8f, 0x68, 0x9b, 0x6f, 0xa3, 0x8b, 0x8e, 0x61,
  0x64, 0x7c, 0x6b, 0x78, 0x97, 0x85, 0x90, 0x94, 0x7e, 0x88, 0x8a, 0x8d,
  0x9c, 0x70, 0x7a, 0x9a, 0x64, 0x80, 0x79, 0x7a, 0x9a, 0x6c, 0x77, 0x97,
  0x81, 0x75, 0x8e, 0x69, 0x8b, 0xae, 0x6d, 0x6c, 0x70, 0x82, 0x8a, 0x6c,
  0x7d, 0x89, 0x8c, 0x88, 0x83, 0x9b, 0x9a, 0x8a, 0x99, 0x7c, 0x7a, 0x88,
  0x75, 0x75, 0x73, 0x7a, 0x81, 0x76, 0x7e, 0x74, 0x88, 0x6b, 0x74, 0x5b,
  0x88, 0x76, 0x8d, 0x4a, 0x7c, 0x7d, 0x71, 0x78, 0x8d, 0x76, 0x95, 0x7c,
  0x99, 0x96, 0x7a, 0x85, 0xad, 0x6f, 0x62, 0x76, 0x92, 0x70, 0x71, 0x85,
  0x7e, 0x8e, 0x7c, 0x73, 0xb3, 0x7a, 0x76, 0x92, 0x94, 0x7f, 0x91, 0x52,
  0x8a, 0x75, 0x81, 0x82, 0xaf, 0x6f, 0x8d, 0x71, 0x86, 0x79, 0x94, 0x92,
  0xb7, 0x8a, 0x88, 0x7c, 0xad, 0x71, 0x8b, 0x9b, 0x98, 0x6b, 0x66, 0x84,
  0x87, 0x87, 0x94, 0xb1, 0x70, 0x8f, 0x76, 0x7e, 0x83, 0x80, 0x7f, 0x86,
  0x67, 0x79, 0x9d, 0x8c, 0x6e, 0xa0, 0x94, 0x87, 0x70, 0x91, 0x8b, 0x8f,
  0x66, 0x84, 0x7f, 0xa8, 0x8c, 0x7e, 0x8c, 0xa1, 0x98, 0x6b, 0x6e, 0x79,
  0x9f, 0x75, 0x8d, 0x77, 0x84, 0x80, 0x8b, 0x82, 0x8d, 0x7a, 0x85, 0x99,
  0x7c, 0x9c, 0xa0, 0x77, 0x89, 0x90, 0x87, 0xac, 0x4d, 0x83, 0x7b, 0x6b,
  0x82, 0x78, 0x91, 0x98, 0x7f, 0x65, 0x78, 0x5f, 0x6a, 0x76, 0x74, 0x62,
  0x7a, 0x8c, 0x84, 0x87, 0x85, 0x97, 0x70, 0x81, 0x7a, 0x76, 0x6f, 0x6d,
  0x61, 0x74, 0x69, 0x8e, 0x5e, 0x74, 0x6f, 0x70, 0x78, 0x72, 0x89, 0x60,
  0x80, 0x53, 0x8a, 0x51, 0x84, 0x83, 0x7d, 0x5d, 0x76, 0x77, 0x84, 0x8a,
  0x7b, 0x98, 0x86, 0x6e, 0xa4, 0x7b, 0x5c, 0xaa, 0x77, 0x72, 0x56, 0x6f,
  0x86, 0x7a, 0x74, 0x6d, 0x7d, 0x6f, 0x78, 0x5a, 0x96, 0x8a, 0x78, 0x69,
  0xa3, 0x82, 0x8b, 0x65, 0x88, 0x84, 0x77, 0x75, 0xa4, 0x7f, 0x90, 0x64,
  0xa4, 0x87, 0x65, 0x94, 0x9a, 0x63, 0x80, 0x84, 0xa8, 0x64, 0x78, 0x95,
  0x8a, 0x6b, 0x71, 0x8d, 0xa1, 0x9c, 0x75, 0x79, 0x88, 0x88, 0x79, 0x7d,
  0x94, 0x9d, 0x70, 0x71, 0x74, 0x81, 0xa4, 0x92, 0x6e, 0x8b, 0xae, 0x84,
  0x8f, 0x97, 0x99, 0xa1, 0x5a, 0x7f, 0x72, 0x99, 0x9a, 0x8d, 0x8c, 0xb5,
  0x88, 0x7c, 0x98, 0x7d, 0x7b, 0x6f, 0x8d, 0x86, 0x94, 0x76, 0x84, 0x94,
  0x78, 0x81, 0x81, 0x8b, 0x67, 0x8c, 0x91, 0x6f, 0x7c, 0x87, 0x8d, 0x98,
  0x75, 0x77, 0x70, 0x8a, 0x75, 0x8a, 0x93, 0x8c, 0x7d, 0x69, 0x65, 0x68,
  0x6e, 0x8b, 0x86, 0x7c, 0x8f, 0x6f, 0x7f, 0x90, 0x71, 0x88, 0x76, 0x78,
  0x8f, 0x6f, 0x6d, 0x6d, 0x59, 0x83, 0x6b, 0x79, 0x53, 0x79, 0x88, 0x7a,
  0x6d, 0x83, 0xa6, 0x59, 0x79, 0x62, 0x84, 0x5e, 0x96, 0x6e, 0x8c, 0x6f,
  0x80, 0x79, 0x77, 0x86, 0x81, 0x9e, 0x69, 0x6a, 0x99, 0x6a, 0x4f, 0x8d,
  0x5d, 0x87, 0x5f, 0x70, 0x6c, 0x87, 0x86, 0x7d, 0x7e, 0x79, 0x8d, 0x60,
  0x87, 0x7a, 0x78, 0x67, 0x9a, 0x73, 0x96, 0x6f, 0x83, 0x72, 0x72, 0x72,
  0xa9, 0x90, 0x8f, 0x62, 0x91, 0x88, 0x4c, 0xa0, 0x95, 0x54, 0x83, 0x75,
  0x8a, 0x94, 0x7e, 0x98, 0x8e, 0x76, 0x77, 0x6f, 0x92, 0x9b, 0x7d, 0x7c,
  0x9d, 0x66, 0x78, 0x84, 0x89, 0x86, 0x67, 0x67, 0x81, 0x62, 0x96, 0x97,
  0x81, 0x8e, 0x9a, 0x69, 0x99, 0x90, 0x87, 0xa4, 0x66, 0x8c, 0x6a, 0x83,
  0x79, 0x8a, 0x6f, 0xa2, 0x85, 0x81, 0x8d, 0xa3, 0x73, 0x6f, 0x85, 0x8f,
  0x98, 0x8b, 0x92, 0x8a, 0x65, 0x7a, 0x80, 0x82, 0x83, 0x78, 0x88, 0x60,
  0x81, 0x89, 0x7c, 0x91, 0x6a, 0x85, 0x7b, 0x71, 0x72, 0x9b, 0x77, 0x81,
  0x90, 0x57, 0x8e, 0x8b, 0x88, 0x6c, 0xa1, 0x8f, 0x8f, 0x7b, 0x87, 0x89,
  0x8d, 0x74, 0x91, 0x71, 0xa2, 0x85, 0x58, 0x7f, 0x65, 0x9d, 0x6f, 0x95,
  0x6c, 0x72, 0x6f, 0x77, 0x6c, 0x6e, 0x93, 0x5d, 0x84, 0x5c, 0x8e, 0x63,
  0x9e, 0x74, 0x9b, 0x83, 0x7c, 0x6e, 0x89, 0x8c, 0x95, 0x69, 0x86, 0x75,
  0x89, 0x6f, 0x62, 0x7b, 0x74, 0x9d, 0x65, 0x86, 0x5e, 0x8d, 0x90, 0x73,
  0x81, 0x7c, 0x7f, 0x64, 0x7d, 0x74, 0x7d, 0x73, 0xa5, 0x73, 0xb3, 0x88,
  0x82, 0x7a, 0x88, 0x75, 0x94, 0x88, 0x74, 0x70, 0x68, 0x80, 0x56, 0x8b,
  0x91, 0x77, 0x7b, 0x96, 0x7b, 0x96, 0x85, 0x90, 0x92, 0x74, 0x7c, 0x73,
  0x96, 0x7b, 0x94, 0x86, 0x82, 0x76, 0x7d, 0x96, 0x91, 0x8f, 0x82, 0x75,
  0xa0, 0x7c, 0xa0, 0x8f, 0x4f, 0x94, 0x8e, 0x67, 0x88, 0x81, 0x8d, 0x79,
  0x7b, 0x91, 0x88, 0xa0, 0xa2, 0x7a, 0x90, 0x85, 0x80, 0x78, 0x83, 0xa1,
  0x7c, 0x6b, 0x60, 0x90, 0x8c, 0x7f, 0xa0, 0x7b, 0x7e, 0x70, 0x77, 0x9a,
  0x6c, 0x89, 0x7f, 0x6f, 0x82, 0x9a, 0x7c, 0x87, 0x91, 0x96, 0x93, 0x9f,
  0x97, 0x6b, 0x83, 0x73, 0x93, 0x7e, 0x95, 0x7f, 0x81, 0x59, 0x82, 0x8a,
  0x92, 0x79, 0xa4, 0x89, 0x81, 0x77, 0x6e, 0x94, 0x63, 0x8f, 0x74, 0x68,
  0x85, 0x8c, 0x8d, 0x82, 0x78, 0x8c, 0x99, 0x92, 0xab, 0x72, 0x87, 0x7e,
  0x82, 0x81, 0x87, 0x7b, 0x78, 0x8a, 0x92, 0x8b, 0x7b, 0x7f, 0x9c, 0x77,
  0x7a, 0x73, 0x85, 0x8e, 0x5b, 0x8e, 0x7a, 0x80, 0x71, 0x94, 0x89, 0xa0,
  0x8f, 0x82, 0x99, 0x96, 0x88, 0x5f, 0x7f, 0x77, 0x75, 0x75, 0x78, 0x8f,
  0x7b, 0x7d, 0x65, 0x7a, 0x79, 0x78, 0xc1, 0x84, 0x92, 0x77, 0x6c, 0x8b,
  0x5b, 0x81, 0xa9, 0x96, 0x8b, 0x97, 0x98, 0xbd, 0x92, 0x7a, 0xb2, 0x85,
  0x88, 0x5f, 0x6e, 0xa2, 0x72, 0xac, 0x7e, 0xb0, 0x6f, 0x83, 0x86, 0x8c,
  0x85, 0x78, 0x9e, 0xa6, 0x77, 0x5a, 0x6a, 0x83, 0x4e, 0x7b, 0x97, 0x85,
  0x84, 0x87, 0x81, 0x75, 0x76, 0x83, 0x79, 0x8b, 0x78, 0x71, 0x73, 0x95,
  0x68, 0x7f, 0x64, 0x8c, 0x65, 0x94, 0x81, 0x86, 0x80, 0x79, 0xa1, 0x75,
  0x71, 0x56, 0x59, 0x93, 0x70, 0x73, 0x7d, 0x7f, 0x99, 0x8a, 0x7f, 0x78,
  0x7c, 0x86, 0x72, 0x74, 0x83, 0x77, 0x68, 0x80, 0x66, 0x78, 0x60, 0x86,
  0x69, 0x82, 0x85, 0x80, 0x83, 0x80, 0x9e, 0x7f, 0x7f, 0x78, 0x5f, 0x9a,
  0x81, 0x8e, 0x8a, 0x68, 0x9a, 0x98, 0x8b, 0x6a, 0x81, 0x87, 0x76, 0x85,
  0x8a, 0x8b, 0x7f, 0x87, 0x6b, 0x73, 0x62, 0x8a, 0x7b, 0x84, 0x8f, 0x83,
  0x7f, 0x97, 0x8c, 0x7c, 0x87, 0x60, 0x59, 0x9f, 0x5d, 0x70, 0x80, 0x7e,
  0x84, 0x7c, 0x86, 0x7c, 0x7b, 0x7a, 0x78, 0x81, 0x8e, 0x6c, 0x79, 0x7e,
  0x5f, 0x6e, 0x53, 0x7c, 0x6a, 0x78, 0x72, 0x7a, 0x8e, 0x83, 0x84, 0x85,
  0x7c, 0x59, 0x5b, 0x9d, 0x6f, 0x79, 0x94, 0x7f, 0x78, 0x85, 0x8f, 0x9d,
  0x89, 0x76, 0x7d, 0x7f, 0x7c, 0x78, 0x6b, 0x95, 0x68, 0x87, 0x69, 0x9b,
  0x6e, 0x7a, 0x86, 0x7a, 0x7d, 0x92, 0x8b, 0x8e, 0x84, 0x6d, 0x5a, 0x6c,
  0x76, 0x8f, 0x93, 0x8e, 0x7c, 0x78, 0x86, 0x5a, 0x6b, 0x81, 0x7b, 0x83,
  0x75, 0x66, 0x92, 0xb4, 0x7a, 0xa0, 0x78, 0xac, 0x5a, 0x87, 0x7c, 0x79,
  0x66, 0x67, 0xa4, 0x7e, 0x89, 0x57, 0x50, 0x6f, 0x72, 0x75, 0x7f, 0x86,
  0x8c, 0x7c, 0x6c, 0x79, 0x72, 0x7e, 0x79, 0x6c, 0x67, 0x73, 0x7f, 0x9a,
  0x76, 0xa0, 0x6e, 0xa1, 0x72, 0x75, 0x70, 0x75, 0x65, 0x79, 0xa7, 0x85,
  0x91, 0x8e, 0x85, 0x6f, 0x8e, 0x95, 0x82, 0x6b, 0x92, 0x91, 0x8d, 0x84,
  0x86, 0x8a, 0x92, 0x88, 0x76, 0x7f, 0x6e, 0x90, 0x6f, 0x98, 0x93, 0xaa,
  0x8e, 0x81, 0x8a, 0x89, 0x71, 0x7b, 0x9f, 0x8a, 0x76, 0x66, 0x60, 0x6a,
  0x6c, 0x70, 0x7c, 0x89, 0x7d, 0x64, 0x78, 0x87, 0x78, 0x7d, 0x78, 0x7d,
  0x83, 0x5f, 0x87, 0x8e, 0x77, 0x87, 0x6f, 0x93, 0x4e, 0x86, 0x6f, 0x76,
  0x6a, 0x7e, 0x8f, 0x88, 0x6e, 0x78, 0x61, 0x68, 0x6b, 0x7c, 0x82, 0x70,
  0x82, 0x85, 0xa1, 0x91, 0x7f, 0x8c, 0x86, 0x81, 0x74, 0x73, 0x8a, 0x9f,
  0x70, 0xa4, 0x7d, 0x9f, 0x6c, 0x6a, 0x80, 0x7e, 0x70, 0x89, 0x76, 0x97,
  0x8a, 0xa3, 0x7e, 0x79, 0x6c, 0x7a, 0x8a, 0x78, 0x7b, 0x87, 0x89, 0x6b,
  0x87, 0x7a, 0x87, 0x91, 0x77, 0x82, 0xaf, 0xa2, 0x81, 0x77, 0x73, 0x84,
  0x56, 0xab, 0x6c, 0x74, 0x88, 0x66, 0x6d, 0x6a, 0x82, 0x85, 0x7e, 0x78,
  0x6b, 0x71, 0x87, 0x72, 0x7a, 0x90, 0x76, 0x84, 0x79, 0x7b, 0x78, 0x7a,
  0x79, 0x81, 0xa2, 0x91, 0x7b, 0x6a, 0x72, 0x84, 0x4b, 0x82, 0x66, 0x75,
  0x8a, 0x6a, 0x6e, 0x77, 0x7b, 0x99, 0x69, 0x78, 0x84, 0x72, 0x85, 0x74,
  0x74, 0x7b, 0x72, 0x8a, 0x7f, 0x8f, 0x85, 0x8b, 0x71, 0x84, 0x84, 0x91,
  0x6a, 0x80, 0x83, 0x8b, 0x8d, 0x8c, 0x8a, 0x86, 0x8d, 0x75, 0x7a, 0x78,
  0x72, 0x90, 0x83, 0x77, 0x75, 0x72, 0x9d, 0x6c, 0x61, 0x7e, 0x79, 0x89,
  0x7d, 0x7b, 0x86, 0x8b, 0x88, 0x70, 0x97, 0x8a, 0x72, 0x6e, 0x64, 0x79,
  0x37, 0xa0, 0x6d, 0x75, 0x96, 0x79, 0x80, 0x63, 0x84, 0x9e, 0x7a, 0x8c,
  0x6c, 0x75, 0x99, 0x6e, 0x5d, 0x8f, 0x73, 0x72, 0x7c, 0x7b, 0x96, 0x7d,
  0x70, 0x80, 0x9f, 0x94, 0x71, 0x8c, 0x76, 0x8f, 0x6d, 0x93, 0x92, 0x6f,
  0x91, 0x78, 0x83, 0x73, 0x7c, 0xa6, 0x7f, 0x78, 0x8e, 0x7f, 0xa4, 0x7c,
  0x97, 0x8d, 0x86, 0x69, 0xa5, 0x74, 0x7a, 0x9d, 0x86, 0x84, 0xa1, 0xa8,
  0xa0, 0x7a, 0x7c, 0x99, 0x5c, 0x8c, 0x70, 0x70, 0x8e, 0x77, 0x8e, 0x6a,
  0x7c, 0x87, 0x84, 0x79, 0x7a, 0x6d, 0x7c, 0x73, 0x8a, 0x82, 0x73, 0x76,
  0x81, 0x78, 0x85, 0x8f, 0x83, 0x82, 0x91, 0x95, 0x86, 0x7c, 0x77, 0x85,
  0x55, 0x89, 0x64, 0x74, 0x8d, 0x76, 0x86, 0x65, 0x74, 0x9e, 0x71, 0x7c,
  0x86, 0x6d, 0x81, 0x84, 0x8a, 0x84, 0x64, 0x73, 0x83, 0x8d, 0x9e, 0x92,
  0x6a, 0x9d, 0x89, 0x86, 0x76, 0x8c, 0x86, 0x8d, 0x87, 0x87, 0x80, 0x75,
  0x86, 0x6d, 0x79, 0x5c, 0x7a, 0xb7, 0x8e, 0x94, 0x83, 0x77, 0x7a, 0x66,
  0x7e, 0x8c, 0x80, 0x87, 0x94, 0x7f, 0x88, 0x84, 0x75, 0x85, 0x9e, 0x87,
  0x97, 0x6e, 0x75, 0xa1, 0x3e, 0x8e, 0x7f, 0x83, 0x80, 0x83, 0x77, 0x56,
  0x8d, 0x99, 0x77, 0x97, 0x9e, 0x6f, 0x91, 0x5c, 0x86, 0x81, 0x84, 0x67,
  0x75, 0x8e, 0x98, 0x7a, 0x87, 0x8e, 0x9e, 0x8b, 0x78, 0x91, 0x7a, 0x84,
  0x96, 0x8c, 0x7c, 0x80, 0x78, 0x8d, 0x77, 0x5b, 0x80, 0x5f, 0x89, 0x63,
  0x7d, 0x9d, 0x6e, 0x7e, 0x7e, 0x91, 0x80, 0x8e, 0x85, 0x7c, 0x79, 0x7c,
  0x95, 0x92, 0x7d, 0x83, 0x66, 0x90, 0x98, 0x7d, 0x88, 0x97, 0xa0, 0x70,
  0xa7, 0x9b, 0xba, 0x9a, 0x64, 0x6b, 0x95, 0x84, 0xa4, 0xa6, 0x80, 0x79,
  0x90, 0x65, 0x7a, 0x95, 0x7f, 0x95, 0x6a, 0x6d, 0x8a, 0x8d, 0x5f, 0x98,
  0x8e, 0x99, 0x88, 0x9c, 0x74, 0x86, 0x90, 0x7e, 0x94, 0x80, 0xa0, 0x8e,
  0x6d, 0x73, 0x84, 0x99, 0x9c, 0x8d, 0x7d, 0x77, 0x88, 0x8c, 0x82, 0x80,
  0x74, 0x83, 0x87, 0x7a, 0x98, 0x78, 0x62, 0x86, 0x94, 0x7a, 0x73, 0x89,
  0x82, 0x90, 0x7c, 0x8c, 0x95, 0x7a, 0x90, 0x88, 0x98, 0x68, 0x7d, 0x80,
  0x81, 0x8f, 0x94, 0x6f, 0x91, 0x7e, 0x89, 0x87, 0x96, 0x81, 0x82, 0x7f,
  0x83, 0x7f, 0x6a, 0x80, 0xaa, 0x77, 0x83, 0x86, 0x86, 0x79, 0x83, 0x8e,
  0x85, 0x92, 0x80, 0x8f, 0x8a, 0x77, 0x96, 0x77, 0x86, 0x89, 0x7a, 0x81,
  0x88, 0x6e, 0x98, 0x6c, 0x79, 0x8d, 0x9a, 0x83, 0x9c, 0x64, 0x78, 0x88,
  0x91, 0x72, 0x80, 0x8c, 0x88, 0x71, 0x7b, 0x75, 0x82, 0x84, 0x9e, 0x6f,
  0x74, 0x91, 0x9d, 0x6c, 0x7a, 0x6e, 0x67, 0x90, 0x83, 0x91, 0x69, 0x79,
  0x69, 0x63, 0x84, 0x67, 0x88, 0x83, 0x7b, 0x82, 0x6f, 0x90, 0x72, 0x7b,
  0x76, 0x6d, 0x5f, 0x85, 0x92, 0xaa, 0x93, 0x8d, 0x45, 0xa7, 0x90, 0x7d,
  0x9e, 0x89, 0x51, 0x8a, 0x6a, 0x92, 0x78, 0x67, 0x89, 0x86, 0x6c, 0x72,
  0x6f, 0x96, 0x85, 0x8b, 0x88, 0x97, 0x7d, 0x9e, 0x96, 0x80, 0x74, 0x8b,
  0x8d, 0x87, 0x8a, 0x7f, 0x50, 0x90, 0x8b, 0x91, 0x7e, 0x99, 0x5f, 0x66,
  0x63, 0x6f, 0x80, 0x59, 0x7d, 0x84, 0x5e, 0x8f, 0x66, 0x86, 0x6f, 0x89,
  0x8e, 0x87, 0x8d, 0x76, 0x88, 0x94, 0x7f, 0x8d, 0x69, 0x7d, 0x77, 0x77,
  0x75, 0x95, 0x76, 0x84, 0x5c, 0x93, 0x7d, 0x70, 0x6f, 0x6b, 0x73, 0x89,
  0x7c, 0x77, 0x6a, 0x85, 0x7d, 0x96, 0x8b, 0x88, 0x82, 0x91, 0x81, 0x83,
  0x75, 0x94, 0x87, 0x80, 0x72, 0x8e, 0x67, 0x74, 0x7e, 0x77, 0x91, 0x86,
  0x75, 0xa9, 0xa4, 0x6d, 0x92, 0x80, 0x87, 0x78, 0x87, 0x7b, 0x7e, 0x77,
  0x86, 0x77, 0x8a, 0x99, 0x6d, 0x8f, 0x73, 0x81, 0x84, 0x84, 0x79, 0x7d,
  0x7c, 0x8c, 0x7f, 0x76, 0x8c, 0xa6, 0x60, 0x7e, 0xab, 0x6d, 0x69, 0xb4,
  0x84, 0x8d, 0x86, 0x83, 0x74, 0x7b, 0x7c, 0x7a, 0x94, 0x93, 0x92, 0x73,
  0x84, 0x9c, 0xa8, 0x89, 0x7e, 0x84, 0x6e, 0x8c, 0x6d, 0x8f, 0x7b, 0x80,
  0x77, 0x8b, 0x74, 0x87, 0x96, 0x62, 0x6f, 0x93, 0x71, 0x57, 0x80, 0x5e,
  0x85, 0xa0, 0x85, 0x79, 0x7a, 0x83, 0x75, 0x87, 0x79, 0xb5, 0x8d, 0x7c,
  0x93, 0x6f, 0x7c, 0x90, 0x73, 0x6f, 0x73, 0x6e, 0x77, 0x8d, 0x61, 0x89,
  0x6d, 0x6c, 0x67, 0x7e, 0x75, 0x69, 0x96, 0x66, 0x87, 0x72, 0x72, 0x91,
  0x61, 0x81, 0x72, 0x6b, 0x87, 0x94, 0x9a, 0x6d, 0x7b, 0x74, 0x89, 0x94,
  0x65, 0x73, 0x65, 0x7a, 0x98, 0x9c, 0x82, 0x74, 0x5e, 0x93, 0x80, 0x88,
  0x8a, 0x79, 0x80, 0x78, 0x7d, 0x73, 0x6e, 0x7c, 0x66, 0x8a, 0x90, 0x73,
  0x74, 0x99, 0x91, 0x8a, 0x74, 0x85, 0x7e, 0x84, 0x67, 0x8d, 0x6c, 0x84,
  0x88, 0x88, 0xa2, 0x84, 0x65, 0x98, 0x94, 0x84, 0x90, 0x8e, 0x87, 0x61,
  0x7c, 0x6f, 0x68, 0x91, 0x81, 0x7b, 0x99, 0x78, 0x7e, 0x90, 0x94, 0x96,
  0x8f, 0x72, 0x86, 0x84, 0x81, 0x7b, 0x92, 0x93, 0x74, 0x9f, 0x63, 0x98,
  0xa5, 0x50, 0x6d, 0x89, 0x7b, 0x7b, 0x77, 0x89, 0x6f, 0x99, 0x8a, 0x7e,
  0x55, 0x7e, 0x8c, 0x70, 0x77, 0x8e, 0x81, 0x7d, 0xa8, 0x80, 0x64, 0x78,
  0x8a, 0x82, 0x6b, 0x75, 0x76, 0x84, 0x71, 0x85, 0x7c, 0x6e, 0x6f, 0x7c,
  0x99, 0x5f, 0x80, 0x73, 0x86, 0x9f, 0x8b, 0x81, 0x74, 0x77, 0x83, 0x77,
  0x90, 0x96, 0x85, 0x73, 0xa3, 0x72, 0x8c, 0x7f, 0x75, 0x7b, 0x6e, 0x7a,
  0x73, 0x8e, 0x7d, 0x8a, 0x73, 0x73, 0x85, 0x6c, 0x85, 0x7d, 0x86, 0x7b,
  0x96, 0x69, 0x60, 0x94, 0x77, 0x81, 0x6e, 0x70, 0x9d, 0x6e, 0xa5, 0x61,
  0x7f, 0x70, 0x90, 0x8f, 0x6a, 0x83, 0x7e, 0x73, 0x96, 0x7b, 0x7f, 0x81,
  0x65, 0x7a, 0x93, 0x6a, 0x7f, 0x8a, 0x5d, 0x7b, 0x97, 0x7e, 0x63, 0x8e,
  0x6b, 0x8f, 0x88, 0x77, 0x8a, 0x7c, 0xae, 0x66, 0x8a, 0x75, 0x84, 0x7a,
  0x79, 0x7d, 0x7f, 0x83, 0x8f, 0x78, 0x97, 0x98, 0x67, 0xa1, 0x8c, 0x65,
  0x7d, 0x95, 0x6d, 0x60, 0x91, 0x6e, 0x75, 0x88, 0x7b, 0x66, 0x81, 0x7e,
  0x7f, 0x67, 0x82, 0x81, 0x7d, 0x79, 0xa7, 0x82, 0x86, 0x76, 0xa8, 0x8f,
  0x89, 0x7d, 0x5f, 0x9d, 0x99, 0x6d, 0x59, 0x85, 0x94, 0x71, 0x93, 0x86,
  0x66, 0x97, 0xab, 0x87, 0x53, 0x84, 0x8b, 0x5e, 0x74, 0x87, 0x7a, 0x7a,
  0xad, 0x7e, 0x7d, 0x85, 0x8c, 0x80, 0x65, 0x72, 0x8a, 0x89, 0x5e, 0x87,
  0x6b, 0x5d, 0x6e, 0x80, 0x92, 0x65, 0xa2, 0x6d, 0x7f, 0xbc, 0xa7, 0x8e,
  0x68, 0x6c, 0x6f, 0x6a, 0x6c, 0x8b, 0x93, 0x6e, 0x96, 0x77, 0x9a, 0x9b,
  0x7a, 0x71, 0x67, 0x71, 0x86, 0x8a, 0x70, 0x7e, 0x5e, 0x6c, 0x7e, 0x75,
  0x86, 0x85, 0x86, 0x65, 0x85, 0x87, 0x75, 0x7e, 0x83, 0x85, 0x82, 0x66,
  0x74, 0x67, 0x99, 0x73, 0x89, 0x81, 0x87, 0x91, 0x6a, 0x76, 0x81, 0x68,
  0x79, 0x9b, 0x88, 0x90, 0x71, 0x80, 0x77, 0x74, 0x73, 0x7f, 0x77, 0x7e,
  0xad, 0x83, 0x6b, 0x88, 0x75, 0x90, 0x7b, 0x72, 0x7f, 0x60, 0x9c, 0x79,
  0xa9, 0x88, 0x9a, 0x79, 0x7f, 0x81, 0x92, 0x78, 0x9a, 0x78, 0x98, 0x9e,
  0x68, 0x95, 0x85, 0x73, 0x7d, 0x80, 0x97, 0x6d, 0x97, 0x6a, 0x72, 0x7a,
  0x81, 0x75, 0x90, 0x80, 0xa0, 0x5b, 0x78, 0x8c, 0x8b, 0x73, 0x77, 0x66,
  0x9b, 0x8b, 0x96, 0x73, 0x8d, 0x95, 0x77, 0xa1, 0x9f, 0x86, 0x9e, 0x88,
  0x7e, 0x7b, 0xac, 0x88, 0x71, 0x8f, 0x69, 0x9e, 0x7b, 0x81, 0x6f, 0x83,
  0x6f, 0x95, 0x84, 0x72, 0x78, 0x7b, 0x6d, 0x90, 0x89, 0x7b, 0x8d, 0x7f,
  0x80, 0x6f, 0x7e, 0x5c, 0x9d, 0x6d, 0x74, 0x93, 0x74, 0x84, 0x7d, 0x84,
  0x9a, 0x96, 0x8a, 0x8e, 0x7f, 0x86, 0x8e, 0x61, 0x73, 0xa3, 0xa6, 0x85,
  0x8c, 0x64, 0x8d, 0x87, 0x98, 0x88, 0x82, 0x90, 0x9b, 0x5b, 0x54, 0x8a,
  0x59, 0x72, 0x7b, 0x94, 0x71, 0xa2, 0x6c, 0x69, 0x7f, 0x88, 0xad, 0x92,
  0x7a, 0x54, 0x91, 0x79, 0x8c, 0xa0, 0x8b, 0x7c, 0x95, 0x62, 0xa1, 0xb3,
  0x86, 0x77, 0x93, 0xa4, 0x8d, 0x69, 0x72, 0xae, 0x6a, 0x89, 0xa4, 0x7b,
  0xa1, 0xb6, 0x91, 0x64, 0x7d, 0x7f, 0x8c, 0x76, 0x78, 0x63, 0x80, 0x93,
  0xb5, 0x9e, 0x77, 0x94, 0x90, 0x7c, 0x7c, 0xa7, 0x8c, 0x8b, 0x68, 0x7d,
  0xa0, 0x8f, 0x74, 0x9e, 0x7d, 0x8e, 0x80, 0x84, 0x69, 0x8e, 0x8a, 0x7d,
  0x8c, 0x8a, 0x71, 0x79, 0x80, 0x9a, 0x7c, 0x5c, 0x9e, 0x7d, 0x78, 0x6d,
  0x78, 0x71, 0xa0, 0x84, 0x67, 0xb6, 0x6e, 0x6c, 0x85, 0x70, 0x71, 0x6b,
  0x78, 0x9b, 0x89, 0x8a, 0x97, 0x82, 0xa9, 0x8c, 0xa3, 0x74, 0x72, 0x88,
  0x89, 0x84, 0x4e, 0x94, 0x64, 0x9a, 0x7b, 0x88, 0x96, 0x97, 0x46, 0x7e,
  0x82, 0x6e, 0x81, 0x80, 0x85, 0x67, 0x5d, 0x85, 0x69, 0x6d, 0x6a, 0x62,
  0x56, 0x72, 0x75, 0x87, 0x93, 0x9a, 0xa9, 0x82, 0x6b, 0x8f, 0x90, 0x4f,
  0x7d, 0x73, 0x67, 0x80, 0x87, 0x7b, 0x8e, 0x7d, 0xa2, 0x74, 0x7d, 0x8c,
  0x94, 0x75, 0x82, 0xb7, 0x84, 0x5f, 0x43, 0x79, 0x78, 0xb3, 0x69, 0x53,
  0x67, 0x81, 0x8e, 0x5d, 0x93, 0x49, 0xe6, 0xca, 0x83, 0x7c, 0x79, 0xa1,
  0x6c, 0x75, 0xa6, 0x90, 0x84, 0x93, 0x8f, 0x81, 0x91, 0x7a, 0xb4, 0x73,
  0x85, 0xa2, 0x5a, 0x7a, 0xa5, 0x7d, 0x8e, 0x90, 0x99, 0x70, 0x7a, 0x7e,
  0x9a, 0x5d, 0x81, 0xa8, 0x82, 0x6b, 0x6d, 0x86, 0x4c, 0x72, 0x87, 0x75,
  0x8b, 0xda, 0x6a, 0x61, 0x91, 0x85, 0x8e, 0x74, 0x8b, 0x99, 0x55, 0x87,
  0x72, 0x58, 0x7a, 0xc3, 0x95, 0x74, 0x6b, 0x86, 0x68, 0x87, 0x8a, 0x27,
  0x63, 0x87, 0x6f, 0x60, 0x64, 0x62, 0x94, 0x66, 0x94, 0x95, 0x86, 0x82,
  0x73, 0x7f, 0x77, 0x74, 0x4e, 0x9e, 0xb9, 0x8e, 0xb5, 0x87, 0xa7, 0x81,
  0x97, 0x89, 0x73, 0x80, 0x86, 0x82, 0x58, 0xa4, 0x94, 0x92, 0x7e, 0x6b,
  0x86, 0x87, 0x69, 0x97, 0x85, 0x6b, 0x8f, 0x88, 0x81, 0xb1, 0x38, 0xc2,
  0x7c, 0x81, 0xa2, 0x47, 0x7f, 0x85, 0x72, 0x92, 0x73, 0xa3, 0x91, 0x66,
  0x73, 0x6a, 0x84, 0x72, 0x83, 0x8f, 0x71, 0x91, 0x71, 0x71, 0x9f, 0x88,
  0x89, 0x77, 0x78, 0x82, 0x57, 0x8e, 0x7f, 0x92, 0x9d, 0x53, 0x30, 0x44,
  0x5f, 0x71, 0x73, 0x4c, 0x58, 0x67, 0x61, 0x5f, 0x5a, 0x66, 0xb5, 0x79,
  0x4d, 0x93, 0xf5, 0x9c, 0x8f, 0x71, 0xb9, 0x67, 0x89, 0x70, 0x90, 0x5c,
  0x6f, 0x94, 0xcb, 0x58, 0x76, 0x72, 0x20, 0x72, 0x8f, 0x57, 0x74, 0x97,
  0x81, 0x6e, 0x7a, 0x90, 0x98, 0x9e, 0x74, 0x57, 0x94, 0x74, 0x94, 0x5c,
  0x4b, 0x8c, 0x8b, 0x71, 0x9d, 0x70, 0x63, 0x53, 0x83, 0x7c, 0x79, 0x86,
  0x9d, 0x7e, 0x72, 0x9a, 0x94, 0x96, 0x7b, 0xc7, 0x99, 0x77, 0x71, 0x8d,
  0x77, 0x90, 0x8e, 0x3c, 0x5a, 0x7f, 0x6f, 0x6e, 0x64, 0x82, 0xa2, 0x73,
  0x7f, 0x59, 0x89, 0x9e, 0x7c, 0x7c, 0x81, 0x92, 0x60, 0x88, 0xa1, 0x75,
  0xa0, 0x9a, 0xa3, 0x7e, 0x8a, 0x94, 0x9d, 0x82, 0x9f, 0x81, 0x65, 0xad,
  0x7c, 0x80, 0x71, 0x7a, 0x7e, 0xb0, 0x58, 0x81, 0x70, 0x8e, 0x95, 0x7d,
  0x76, 0xbc, 0x72, 0xc2, 0xa3, 0x8b, 0xb2, 0x5a, 0x86, 0x9d, 0x6c, 0x9f,
  0x50, 0x7f, 0xa8, 0x74, 0x82, 0x76, 0x64, 0x82, 0x82, 0x83, 0x75, 0x94,
  0x7f, 0x68, 0x90, 0x82, 0x80, 0x7f, 0x8e, 0x79, 0x60, 0xd2, 0x95, 0x6b,
  0xa8, 0x5a, 0x90, 0x5d, 0x4c, 0x62, 0x76, 0x6d, 0x62, 0x67, 0x40, 0x8b,
  0x6e, 0x99, 0x8f, 0x29, 0x76, 0x80, 0x92, 0x52, 0x99, 0x53, 0x88, 0x80,
  0x7b, 0x81, 0x66, 0x6c, 0x74, 0xb9, 0x8e, 0x81, 0x7e, 0x6c, 0x5d, 0x5f,
  0x51, 0x8e, 0x5a, 0x6e, 0x80, 0x8c, 0x71, 0x7b, 0x67, 0x8e, 0x8d, 0x47,
  0x8b, 0x5e, 0xa2, 0x58, 0x90, 0x52, 0x9b, 0x6f, 0x82, 0x76, 0x51, 0x7b,
  0x6c, 0x9b, 0x6f, 0x81, 0xa8, 0x88, 0x79, 0x79, 0x76, 0x83, 0x8d, 0x81,
  0x8f, 0x95, 0x6e, 0x71, 0x7a, 0x82, 0x7a, 0x77, 0x8a, 0x7e, 0x85, 0x77,
  0xb3, 0x9d, 0xa9, 0x7d, 0x5b, 0x5f, 0x9b, 0x90, 0x88, 0x67, 0x4d, 0x95,
  0x4d, 0x7b, 0x9f, 0x75, 0x88, 0x8e, 0xb3, 0x96, 0x64, 0x8c, 0xbd, 0x7c,
  0x74, 0x68, 0x58, 0xbe, 0x4e, 0x81, 0x94, 0x89, 0x6b, 0x9a, 0x73, 0x8c,
  0x78, 0x79, 0xc3, 0x91, 0x7f, 0x72, 0x9e, 0xa2, 0x78, 0x6a, 0x8e, 0x80,
  0x99, 0x9b, 0x75, 0x9d, 0x70, 0x7d, 0x86, 0x75, 0x73, 0x76, 0x64, 0xa2,
  0x9e, 0x8e, 0x79, 0x7b, 0x91, 0x6d, 0x9b, 0xa0, 0x91, 0x96, 0xaf, 0x92,
  0x7a, 0x65, 0xc4, 0x6d, 0x85, 0x98, 0x78, 0x8d, 0x68, 0x87, 0x92, 0x7c,
  0x81, 0x69, 0x65, 0x8e, 0x7d, 0x98, 0x62, 0x30, 0x97, 0x6e, 0x52, 0x68,
  0x83, 0x5e, 0x8d, 0x8a, 0x95, 0x8d, 0x78, 0x7b, 0x85, 0x76, 0x73, 0x75,
  0x87, 0x8f, 0x91, 0x7b, 0x56, 0xb2, 0x72, 0x6e, 0x81, 0x8f, 0x8a, 0x8a,
  0x6e, 0x7c, 0x9a, 0x40, 0x76, 0x7d, 0x81, 0x5d, 0xa0, 0x79, 0x89, 0x84,
  0x83, 0x89, 0x72, 0x8c, 0x89, 0x83, 0x68, 0x79, 0x93, 0x88, 0x70, 0x71,
  0x62, 0x83, 0x7d, 0x6c, 0x7a, 0x9f, 0x7c, 0x6d, 0x91, 0x79, 0x81, 0x82,
  0x7b, 0x7e, 0x8f, 0x88, 0x9f, 0x9b, 0xba, 0x94, 0x78, 0x74, 0x84, 0x8e,
  0x96, 0x69, 0x99, 0x65, 0x8f, 0x80, 0x81, 0x74, 0x69, 0x8d, 0x5b, 0x74,
  0x70, 0x98, 0x8e, 0x77, 0xa2, 0x6b, 0x86, 0x8d, 0x8d, 0x7b, 0x83, 0x7c,
  0xa2, 0x82, 0xae, 0x88, 0x83, 0x81, 0x7d, 0x62, 0x8d, 0x92, 0x8a, 0x7c,
  0x84, 0x8c, 0x86, 0x61, 0x77, 0x8d, 0x8f, 0x8e, 0x5c, 0x96, 0x97, 0x7e,
  0x8a, 0x68, 0x93, 0x7d, 0x9e, 0x69, 0x88, 0x90, 0x8c, 0x6e, 0xa2, 0x84,
  0x88, 0x6f, 0x92, 0x6e, 0x6c, 0x9f, 0x8c, 0x85, 0x91, 0x9b, 0x87, 0x66,
  0x78, 0xab, 0xa5, 0x7c, 0x5d, 0x89, 0x81, 0x92, 0x8e, 0x6f, 0x9b, 0x79,
  0xac, 0x77, 0xa1, 0x96, 0x8c, 0x89, 0x7e, 0x8e, 0x7d, 0x6d, 0x8f, 0x6e,
  0x88, 0x7b, 0x9e, 0x83, 0x80, 0x85, 0x83, 0x83, 0x7d, 0x93, 0x7c, 0x73,
  0x6b, 0x7c, 0x73, 0xb5, 0x84, 0x83, 0x9d, 0x6d, 0x8a, 0x81, 0x7d, 0x8d,
  0x79, 0x92, 0x7d, 0x95, 0x82, 0x6f, 0x96, 0x7a, 0xb7, 0x75, 0x88, 0x82,
  0x8d, 0x81, 0x85, 0x7f, 0x7f, 0x67, 0x73, 0x6c, 0x6e, 0x92, 0x7f, 0x9c,
  0x7b, 0x82, 0x8f, 0x6e, 0x7e, 0xaa, 0x74, 0x8f, 0x5d, 0x76, 0x75, 0xa0,
  0x89, 0x6b, 0x87, 0x74, 0x6b, 0x73, 0xa9, 0x4c, 0x7a, 0x79, 0x58, 0x8c,
  0x70, 0x85, 0x71, 0x58, 0x78, 0x71, 0xa0, 0x89, 0x8a, 0x77, 0xa9, 0x7e,
  0xc7, 0xb4, 0x6e, 0x70, 0x6c, 0x86, 0x7f, 0x7f, 0x7f, 0x63, 0x97, 0x63,
  0x72, 0x55, 0x6d, 0x59, 0x45, 0x7f, 0x89, 0x97, 0x7e, 0x7b, 0x95, 0x83,
  0x67, 0x74, 0x8a, 0x81, 0x93, 0x80, 0x65, 0x8a, 0x8f, 0x9a, 0x44, 0x69,
  0x7c, 0x71, 0x74, 0x80, 0x9a, 0x78, 0x8b, 0x6c, 0x5d, 0x6a, 0x65, 0x61,
  0x6e, 0x96, 0x9a, 0x86, 0x92, 0x87, 0x9a, 0x7b, 0x4f, 0x70, 0x6a, 0x76,
  0x9c, 0x69, 0x42, 0x95, 0x96, 0x83, 0x4e, 0x80, 0x8d, 0x75, 0x65, 0x85,
  0x88, 0x79, 0x94, 0x73, 0x6c, 0x6e, 0x71, 0x81, 0x7a, 0x8f, 0x8d, 0x81,
  0x8b, 0x78, 0x87, 0x6a, 0x6e, 0x87, 0x71, 0x91, 0x9c, 0x78, 0x6b, 0x7f,
  0x92, 0x71, 0x59, 0x80, 0x76, 0x8b, 0x79, 0x83, 0x8c, 0x6c, 0x73, 0x76,
  0x98, 0x80, 0x76, 0x84, 0x91, 0xa3, 0x86, 0x7d, 0x79, 0x96, 0x75, 0x69,
  0x77, 0x89, 0x7c, 0x7f, 0x8a, 0x72, 0x9d, 0xa2, 0x83, 0x89, 0x7c, 0x85,
  0x77, 0x79, 0x83, 0x89, 0x97, 0x65, 0x57, 0x71, 0x7e, 0x94, 0xa4, 0x4b,
  0xa6, 0x4e, 0x46, 0x9c, 0x92, 0x6c, 0x62, 0x7e, 0x7d, 0x78, 0x72, 0x7d,
  0xa3, 0x9e, 0xb2, 0x8e, 0xb3, 0x5a, 0x7f, 0x60, 0x7c, 0x79, 0x7f, 0x79,
  0x87, 0x6e, 0x7b, 0x69, 0x81, 0x63, 0x6b, 0x78, 0x92, 0x95, 0x89, 0x9a,
  0x90, 0x58, 0x8c, 0x9e, 0x7a, 0x78, 0x67, 0x6d, 0x8b, 0x7a, 0x72, 0x8a,
  0x88, 0x73, 0x2f, 0x89, 0x87, 0x81, 0x81, 0x88, 0x7d, 0x7a, 0x6b, 0x8b,
  0x8c, 0x39, 0x43, 0x7f, 0x7c, 0x95, 0xad, 0x8c, 0x8c, 0x63, 0x96, 0x9a,
  0x59, 0x63, 0x6d, 0x75, 0x96, 0x5a, 0x3e, 0x94, 0x81, 0x8b, 0x4a, 0x99,
  0xa2, 0x6f, 0x7c, 0x7d, 0x6c, 0x84, 0x74, 0x8e, 0x97, 0x6d, 0x5c, 0x81,
  0x78, 0x95, 0x9a, 0x8b, 0x7f, 0x82, 0x99, 0x8c, 0x5e, 0x74, 0x82, 0x7a,
  0x97, 0x6f, 0x5d, 0x7c, 0x8a, 0x95, 0x66, 0x8f, 0x7e, 0x83, 0x9a, 0x80,
  0x77, 0x6d, 0x7c, 0x98, 0x85, 0x92, 0x7a, 0x76, 0x7b, 0x93, 0x6d, 0x6b,
  0x75, 0x98, 0x97, 0x55, 0x7d, 0x92, 0x8f, 0x80, 0x83, 0x66, 0x9b, 0x63,
  0x7b, 0xa4, 0x9b, 0x8e, 0xa2, 0x79, 0x9c, 0x88, 0x83, 0x69, 0x86, 0x99,
  0x6a, 0xb6, 0x7c, 0x71, 0x90, 0x6d, 0x71, 0x7d, 0x8a, 0x51, 0x89, 0x9b,
  0x86, 0x5f, 0x61, 0x98, 0x5b, 0x8c, 0x99, 0x65, 0xa0, 0x88, 0x9e, 0x5b,
  0x96, 0x67, 0x6d, 0x86, 0x9a, 0x65, 0x6d, 0x65, 0x82, 0x8b, 0x9c, 0x88,
  0x8d, 0x90, 0x7c, 0x9d, 0x9e, 0x6f, 0x93, 0x89, 0x94, 0x98, 0x5e, 0x76,
  0x85, 0x9f, 0x88, 0x87, 0x81, 0x74, 0x4e, 0x81, 0x9a, 0x69, 0x8e, 0x7e,
  0x87, 0x7d, 0x67, 0x81, 0x90, 0x47, 0x53, 0x7b, 0x79, 0x8a, 0x98, 0x7d,
  0x9c, 0x88, 0x8f, 0x96, 0x82, 0x83, 0x5e, 0x71, 0xa3, 0x6b, 0x4f, 0x93,
  0x7b, 0x66, 0x55, 0x9f, 0xa1, 0x7d, 0x72, 0x77, 0x7d, 0xab, 0x7e, 0x80,
  0x86, 0x8a, 0x55, 0x74, 0x87, 0x7b, 0x97, 0x82, 0x99, 0x9a, 0x80, 0x7f,
  0x66, 0x83, 0x79, 0x7a, 0x87, 0x7e, 0x6c, 0xac, 0x78, 0x73, 0x9c, 0x9e,
  0x84, 0x93, 0x84, 0x64, 0x7b, 0x7d, 0x88, 0x85, 0x7f, 0xa6, 0x4e, 0x67,
  0x6d, 0x7a, 0x90, 0x72, 0x7c, 0x61, 0x99, 0x72, 0x7f, 0x87, 0x87, 0x6c,
  0x85, 0x92, 0x8d, 0xa8, 0x73, 0x8d, 0x8a, 0x93, 0x9f, 0x8a, 0x6b, 0x75,
  0x81, 0x79, 0x81, 0x79, 0x7f, 0xae, 0x86, 0x76, 0x8f, 0x93, 0x77, 0x82,
  0x79, 0x7c, 0x70, 0x9d, 0x6c, 0x70, 0x85, 0x79, 0x79, 0x86, 0x7a, 0x60,
  0x9d, 0x7e, 0x87, 0x48, 0x83, 0x6e, 0x70, 0x85, 0x6c, 0x86, 0x75, 0x81,
  0x94, 0x94, 0x8c, 0x88, 0x7b, 0x86, 0x79, 0x9c, 0x74, 0x9d, 0x99, 0x93,
  0x91, 0x71, 0x79, 0x7b, 0x77, 0xa1, 0xa3, 0x7e, 0xa2, 0x83, 0x66, 0x86,
  0x7f, 0x6c, 0x8d, 0x89, 0x79, 0x96, 0x80, 0x84, 0xa4, 0x5b, 0x70, 0x80,
  0x68, 0x91, 0x8b, 0x7b, 0x81, 0x8a, 0x8f, 0x92, 0x93, 0x74, 0x8e, 0x8b,
  0x81, 0x61, 0x76, 0x94, 0x66, 0x7b, 0x70, 0xa7, 0xa5, 0x89, 0x85, 0x6d,
  0x93, 0x82, 0x92, 0x9d, 0x82, 0xa5, 0x62, 0x8b, 0x65, 0x84, 0x8e, 0x7d,
  0x7b, 0x76, 0x7c, 0x8c, 0x73, 0x82, 0x8d, 0x7c, 0x9f, 0x72, 0x8f, 0x83,
  0x6e, 0x8b, 0x95, 0xac, 0x7d, 0x75, 0x90, 0x71, 0x7b, 0x9b, 0x9a, 0x89,
  0x80, 0x7a, 0x5c, 0x69, 0x5c, 0x80, 0x90, 0x75, 0x67, 0x76, 0x79, 0x78,
  0x8b, 0x87, 0x90, 0x68, 0x99, 0x8d, 0x92, 0x8d, 0x7a, 0x8f, 0x8a, 0xa2,
  0xa9, 0x88, 0x8c, 0x6b, 0x83, 0x8f, 0x96, 0x63, 0x9e, 0x5e, 0x93, 0x7f,
  0x79, 0x8a, 0x97, 0x84, 0x88, 0x94, 0x76, 0x81, 0x75, 0x8d, 0x91, 0x87,
  0x72, 0x67, 0xa7, 0x8c, 0x68, 0x94, 0x6f, 0x8c, 0x8d, 0x7b, 0x90, 0x87,
  0x87, 0x63, 0x8a, 0x8b, 0x88, 0x69, 0x88, 0x7f, 0x7b, 0x74, 0x7e, 0x82,
  0x71, 0x9d, 0x8f, 0x8b, 0x68, 0x8d, 0x79, 0x77, 0x83, 0x52, 0x9e, 0x8e,
  0x7e, 0x8a, 0xad, 0x76, 0x88, 0x71, 0x8f, 0x6a, 0x8d, 0x66, 0x86, 0x74,
  0x80, 0x58, 0xad, 0x81, 0x77, 0x9a, 0x70, 0x85, 0x72, 0x8d, 0x75, 0x6a,
  0x79, 0x7f, 0x7c, 0x86, 0x82, 0x6c, 0x87, 0x6f, 0x9c, 0x7b, 0x83, 0x8a,
  0x90, 0x73, 0x8b, 0x68, 0x7d, 0x81, 0x71, 0x75, 0x8a, 0x52, 0x86, 0x71,
  0x7e, 0x95, 0x86, 0x95, 0x93, 0x9f, 0x81, 0x75, 0x7f, 0x78, 0x74, 0x7e,
  0x78, 0x78, 0xa3, 0x84, 0x9b, 0x85, 0x9e, 0x85, 0x9b, 0x88, 0x8b, 0x61,
  0x6b, 0x90, 0x87, 0x77, 0xa1, 0x66, 0x94, 0x68, 0x78, 0xa1, 0x80, 0x9b,
  0xa4, 0x7a, 0x69, 0x96, 0x8b, 0x71, 0x6b, 0x82, 0xa7, 0x73, 0x6f, 0x94,
  0xa7, 0x8a, 0x83, 0x6f, 0x7a, 0x76, 0x7b, 0x6f, 0x8b, 0xa2, 0x6a, 0x8c,
  0x90, 0x8b, 0x98, 0xa8, 0x89, 0x89, 0x8d, 0x8d, 0x84, 0x93, 0x75, 0x91,
  0x8c, 0x99, 0x8d, 0x7e, 0x8e, 0x70, 0x81, 0x79, 0x70, 0x8b, 0x7f, 0x94,
  0x9c, 0x71, 0x7d, 0x8a, 0xa1, 0x88, 0x85, 0x80, 0x63, 0x75, 0x90, 0xa6,
  0x7a, 0x84, 0x74, 0x74, 0x84, 0x81, 0x83, 0x7e, 0x80, 0x87, 0x7e, 0x77,
  0x73, 0x75, 0x88, 0x91, 0x73, 0x78, 0x7f, 0x82, 0x9b, 0x77, 0xa0, 0x80,
  0x77, 0x7b, 0x77, 0x80, 0x7a, 0x72, 0x8a, 0x95, 0xa5, 0x7c, 0x8c, 0x75,
  0x75, 0x97, 0x98, 0x69, 0x71, 0x73, 0x83, 0x6f, 0x74, 0x6e, 0xb0, 0x80,
  0x6c, 0x84, 0x94, 0x77, 0x84, 0x83, 0x8e, 0x9c, 0x81, 0x84, 0x7f, 0x76,
  0x6d, 0x71, 0x7b, 0x91, 0x9a, 0x7e, 0x8b, 0x62, 0x79, 0x90, 0x8f, 0x68,
  0x77, 0x69, 0x7f, 0x7b, 0x8f, 0x6d, 0x7e, 0x77, 0x7d, 0x6f, 0x6f, 0x76,
  0x79, 0x6f, 0x88, 0x89, 0x7e, 0x97, 0x7d, 0x90, 0x90, 0x6f, 0x90, 0x81,
  0x9f, 0x8a, 0x9c, 0x87, 0x92, 0x86, 0x78, 0x8e, 0x89, 0x74, 0x7a, 0x95,
  0x95, 0x6c, 0x8b, 0x91, 0x96, 0x8a, 0xaa, 0x80, 0x87, 0x68, 0x89, 0x81,
  0x97, 0x90, 0x6f, 0x91, 0x80, 0x50, 0x8e, 0x7b, 0x72, 0x8a, 0x8b, 0x86,
  0x9a, 0x92, 0x93, 0x82, 0x63, 0x8b, 0x86, 0x8b, 0x84, 0x55, 0x7e, 0x7d,
  0x76, 0x81, 0x94, 0x78, 0x6c, 0x6a, 0x85, 0x82, 0x96, 0x71, 0x90, 0x8c,
  0x63, 0x3f, 0x81, 0x91, 0x7d, 0x79, 0x81, 0x75, 0x9c, 0x92, 0x8a, 0x64,
  0x58, 0x80, 0x81, 0x86, 0x8d, 0x67, 0x60, 0x8c, 0x68, 0x92, 0x76, 0x90,
  0x84, 0x72, 0xa5, 0x89, 0x7a, 0x67, 0x8b, 0x7c, 0x81, 0x2a, 0x66, 0x85,
  0x7d, 0x86, 0x8c, 0x86, 0x86, 0xc4, 0x81, 0x7e, 0x5e, 0x70, 0x74, 0x90,
  0x80, 0x5b, 0x72, 0x7d, 0x62, 0x96, 0x83, 0x95, 0x82, 0x75, 0x8d, 0x93,
  0x75, 0x76, 0x8d, 0x7e, 0x84, 0x26, 0x47, 0x8e, 0x88, 0x67, 0x84, 0x58,
  0x4e, 0x96, 0x78, 0x86, 0x85, 0x62, 0x8a, 0x82, 0x83, 0x74, 0x6f, 0x94,
  0x6b, 0x81, 0x98, 0x97, 0x8c, 0x65, 0xad, 0x74, 0x8c, 0x6d, 0x8f, 0x94,
  0xa3, 0x44, 0x6a, 0x8d, 0x83, 0x86, 0x97, 0x7e, 0x82, 0x9c, 0x6c, 0x72,
  0x8d, 0x8c, 0x85, 0x8d, 0x9d, 0x57, 0xa1, 0x9a, 0x93, 0x66, 0xb1, 0x6c,
  0x92, 0x6f, 0x96, 0x83, 0x98, 0x96, 0x82, 0x89, 0x9c, 0x37, 0x93, 0x79,
  0x7d, 0x74, 0x90, 0x8c, 0xa5, 0x98, 0x86, 0xaf, 0x81, 0x7d, 0x91, 0x97,
  0x9b, 0x5e, 0x78, 0x9a, 0x8c, 0x7e, 0x51, 0x7c, 0x71, 0x7d, 0x81, 0x97,
  0x69, 0x8c, 0x9b, 0x83, 0x8c, 0x20, 0x62, 0x82, 0x73, 0x84, 0x6c, 0x79,
  0x6c, 0x8d, 0x90, 0x7c, 0x6b, 0x7c, 0x7e, 0x93, 0x7e, 0x63, 0x79, 0x81,
  0x6c, 0x81, 0x86, 0x75, 0x92, 0x5d, 0x91, 0x74, 0x7e, 0x75, 0x82, 0x95,
  0x7d, 0x11, 0x5e, 0x84, 0x80, 0x9c, 0x89, 0x75, 0x46, 0x7f, 0x7b, 0x64,
  0x50, 0x7e, 0x85, 0x91, 0x74, 0x4c, 0x60, 0x98, 0x71, 0x8c, 0x80, 0x85,
  0x98, 0x63, 0xa4, 0x6f, 0x8b, 0x61, 0x7b, 0x89, 0x77, 0x2b, 0x48, 0x69,
  0x7d, 0x7f, 0x89, 0x75, 0x6c, 0xa4, 0x71, 0x8f, 0x7f, 0x8b, 0x8d, 0x87,
  0x70, 0x7a, 0x8a, 0x92, 0x71, 0x6d, 0x77, 0x88, 0x86, 0x73, 0xb2, 0x7f,
  0x92, 0x68, 0x70, 0x79, 0x95, 0x4b, 0x7e, 0x84, 0x74, 0x82, 0x91, 0x9c,
  0xb7, 0xa5, 0x66, 0xa2, 0x85, 0x95, 0x85, 0x82, 0x9d, 0x83, 0x97, 0x9b,
  0x79, 0x98, 0x73, 0xa1, 0x82, 0x6e, 0xa5, 0xa5, 0xa4, 0x97, 0xad, 0x7c,
  0x8b, 0x72, 0xa0, 0x83, 0x77, 0xac, 0x84, 0x91, 0x95, 0x6c, 0x84, 0xa0,
  0x8d, 0x80, 0x91, 0x87, 0x89, 0x76, 0x8d, 0x7e, 0x7f, 0xa7, 0x79, 0x86,
  0x73, 0x6e, 0x82, 0xa1, 0x8b, 0x95, 0x8b, 0x96, 0x80, 0x83, 0x8e, 0x78,
  0x98, 0x74, 0x81, 0x86, 0x7b, 0x77, 0x81, 0x96, 0x87, 0x83, 0x85, 0x86,
  0x83, 0x83, 0xa1, 0x8a, 0x84, 0x85, 0x88, 0x71, 0xa2, 0x63, 0x7d, 0x72,
  0x7d, 0x8d, 0x85, 0x9b, 0x7a, 0x6a, 0x7d, 0x59, 0x8d, 0x8e, 0x78, 0x79,
  0x62, 0x92, 0x72, 0x72, 0x8d, 0x94, 0x8d, 0x5f, 0x7a, 0x74, 0xa9, 0x86,
  0x75, 0x6b, 0x7f, 0x77, 0xa6, 0x69, 0x80, 0x5b, 0x7f, 0x8d, 0x9d, 0x89,
  0x71, 0x7b, 0x97, 0x66, 0x99, 0x95, 0x88, 0x78, 0x77, 0x75, 0x86, 0x92,
  0x7b, 0x91, 0x95, 0x73, 0x8f, 0x7f, 0x9a, 0x6a, 0x6b, 0x70, 0x93, 0x82,
  0xab, 0x66, 0x7a, 0x7b, 0x93, 0x61, 0x85, 0x80, 0x81, 0x95, 0xb4, 0x96,
  0x8f, 0x7b, 0x74, 0x90, 0x96, 0x89, 0x67, 0xa5, 0x8f, 0x79, 0x78, 0x92,
  0x88, 0xa7, 0x9a, 0x85, 0x73, 0x8a, 0x8b, 0xb8, 0x9c, 0x67, 0xa6, 0x8a,
  0x82, 0x99, 0x8c, 0x86, 0x7a, 0x81, 0x89, 0x8a, 0x95, 0x6e, 0x7e, 0x6e,
  0x8b, 0x92, 0x8d, 0xad, 0x73, 0x6f, 0x8b, 0x7b, 0x9e, 0x70, 0x84, 0x85,
  0x77, 0x7a, 0xa1, 0x90, 0x96, 0x8f, 0x81, 0x85, 0x8a, 0x8d, 0x7f, 0xa7,
  0x6c, 0x80, 0x86, 0x91, 0x8b, 0x81, 0x71, 0x79, 0x82, 0x95, 0x8d, 0x99,
  0x7a, 0x7c, 0x92, 0x80, 0x87, 0x7b, 0x76, 0x7c, 0x70, 0x79, 0x80, 0x9a,
  0x7e, 0x86, 0xa6, 0x7b, 0x99, 0x7d, 0x88, 0x80, 0x7b, 0x78, 0x7d, 0x8e,
  0x67, 0x69, 0x7c, 0x66, 0x76, 0x7b, 0x8c, 0x9c, 0x7a, 0x7f, 0x76, 0x93,
  0x86, 0x8f, 0x90, 0x82, 0x60, 0x80, 0x85, 0x96, 0x60, 0x7f, 0x9a, 0x6a,
  0x85, 0x79, 0x7a, 0x88, 0x90, 0x81, 0x7f, 0x71, 0x71, 0x80, 0x88, 0x66,
  0x71, 0x75, 0x80, 0x77, 0x81, 0x73, 0x77, 0x7d, 0x94, 0x73, 0x86, 0x93,
  0x76, 0x7e, 0xa7, 0x68, 0x6f, 0x82, 0xa3, 0x76, 0x90, 0x84, 0x6e, 0x98,
  0x8d, 0xa2, 0x57, 0x69, 0x9c, 0x70, 0x7e, 0x66, 0x69, 0x71, 0x70, 0x6c,
  0x9a, 0x63, 0x64, 0x8d, 0x8a, 0x77, 0xae, 0x75, 0x6e, 0x74, 0x9e, 0x5d,
  0x85, 0x80, 0x7c, 0x8c, 0x97, 0x76, 0x7a, 0x6b, 0x62, 0x5e, 0x88, 0xa3,
  0x73, 0x86, 0xa4, 0x67, 0x7c, 0x9d, 0x8e, 0xa5, 0x86, 0x77, 0x91, 0x63,
  0x73, 0x80, 0x8c, 0x87, 0x77, 0x79, 0x82, 0x8f, 0x85, 0x8b, 0xa8, 0x6d,
  0x7a, 0x84, 0x75, 0x7c, 0x85, 0x4b, 0x81, 0x9e, 0x88, 0x74, 0x8d, 0x6b,
  0x80, 0x79, 0x86, 0x87, 0x81, 0x90, 0x89, 0x76, 0x94, 0x76, 0x82, 0x5e,
  0x89, 0x70, 0x69, 0x86, 0x85, 0x78, 0x93, 0x64, 0x84, 0x8f, 0x73, 0x82,
  0x83, 0x4f, 0x75, 0x8e, 0x6b, 0x69, 0x6a, 0x5f, 0x87, 0x77, 0x85, 0x81,
  0x82, 0x81, 0x8b, 0x6e, 0x87, 0x7f, 0x8c, 0x87, 0x6a, 0x73, 0x98, 0x73,
  0x7f, 0x92, 0x8c, 0x7a, 0x82, 0x84, 0x84, 0xa0, 0x7f, 0x68, 0x6c, 0x7e,
  0x7f, 0x75, 0x62, 0x68, 0x6f, 0x85, 0x6b, 0x64, 0x78, 0x6d, 0x86, 0x83,
  0x86, 0x66, 0x83, 0x88, 0x61, 0x76, 0x93, 0x89, 0x5a, 0x90, 0x92, 0x87,
  0x9b, 0x7b, 0x7f, 0x84, 0x78, 0x66, 0x70, 0x70, 0x8a, 0x7e, 0x4d, 0x72,
  0x72, 0xab, 0x78, 0x42, 0x79, 0x63, 0x93, 0x81, 0x89, 0x4b, 0x93, 0x71,
  0x74, 0x8f, 0x86, 0x9c, 0x7e, 0x96, 0x6f, 0x91, 0xa3, 0x87, 0x6a, 0x6c,
  0x5d, 0x6e, 0x79, 0x9d, 0x71, 0x64, 0xa3, 0x46, 0x69, 0x86, 0x76, 0xa6,
  0x8b, 0x71, 0x73, 0x62, 0x6f, 0x8f, 0x8f, 0x96, 0x72, 0x47, 0x73, 0x66,
  0x86, 0x8b, 0xb3, 0x7a, 0x8e, 0x81, 0x79, 0x8f, 0x72, 0x4f, 0x86, 0x86,
  0x7e, 0x82, 0x85, 0x3c, 0x78, 0x8d, 0x7a, 0x82, 0x74, 0x70, 0x7b, 0x6f,
  0x87, 0x6d, 0x6f, 0x75, 0x71, 0x56, 0x7f, 0x79, 0x84, 0x80, 0x84, 0x6e,
  0x88, 0x7a, 0x86, 0x81, 0xae, 0x81, 0x7c, 0x76, 0xa5, 0x95, 0x7f, 0x81,
  0x92, 0x99, 0x71, 0x53, 0x7a, 0x8d, 0x85, 0x7c, 0x9d, 0x67, 0x7b, 0x74,
  0x79, 0x7a, 0xa4, 0xa3, 0x7a, 0x7f, 0xa7, 0x6e, 0x73, 0x85, 0x78, 0x8c,
  0x97, 0x91, 0x7c, 0x5f, 0xac, 0x7f, 0x7a, 0xa3, 0x90, 0xa5, 0x91, 0x55,
  0x6b, 0x68, 0x7d, 0x95, 0x91, 0x69, 0x9c, 0x6a, 0x6f, 0x91, 0x7d, 0x9f,
  0x89, 0x89, 0x99, 0x93, 0xa1, 0x94, 0x88, 0x7c, 0xa7, 0x93, 0x67, 0x53,
  0x7a, 0x95, 0x7d, 0xbf, 0x88, 0xa5, 0x92, 0x4b, 0x77, 0x89, 0x88, 0x8d,
  0x84, 0x64, 0x88, 0x6b, 0x77, 0x97, 0x80, 0x8a, 0x68, 0x83, 0x6c, 0x8a,
  0x83, 0x7c, 0x7d, 0x54, 0x6b, 0x92, 0x84, 0x8b, 0xa4, 0x73, 0x8e, 0x44,
  0x82, 0x90, 0x85, 0x9e, 0x94, 0x69, 0x69, 0x58, 0x76, 0x85, 0x9b, 0x80,
  0x83, 0x78, 0x94, 0x97, 0x79, 0x75, 0x66, 0x6e, 0x70, 0x7a, 0x9b, 0x76,
  0x63, 0x6d, 0x89, 0x6f, 0x86, 0x81, 0x7c, 0x54, 0x83, 0xa0, 0x85, 0x76,
  0x86, 0x77, 0x78, 0x71, 0x6b, 0x60, 0x8a, 0x85, 0x57, 0x7c, 0x80, 0x95,
  0x6c, 0x77, 0x8d, 0x81, 0x6c, 0x5b, 0x7e, 0x74, 0x7e, 0x79, 0x93, 0x60,
  0x96, 0x90, 0x81, 0x7e, 0x8d, 0x96, 0x75, 0x6e, 0x73, 0x91, 0x7e, 0x88,
  0x8d, 0x70, 0x92, 0x81, 0x8a, 0x8b, 0x87, 0xa5, 0x55, 0x94, 0x7a, 0x81,
  0x90, 0x96, 0x89, 0x6e, 0x81, 0x6a, 0x70, 0x66, 0x70, 0x92, 0x81, 0x90,
  0x93, 0x81, 0x97, 0x78, 0x70, 0x6f, 0x8f, 0x74, 0x84, 0x64, 0x92, 0x84,
  0x7c, 0x92, 0x7f, 0x9b, 0x93, 0x96, 0x7e, 0x8f, 0x9c, 0x9e, 0x94, 0x6a,
  0xb0, 0x86, 0x77, 0x75, 0x7d, 0x98, 0x76, 0xab, 0x79, 0x88, 0x87, 0x7c,
  0x83, 0x8b, 0x93, 0x85, 0x7d, 0x7a, 0x78, 0x95, 0x7f, 0xa2, 0x70, 0x6e,
  0x7e, 0x90, 0x83, 0x92, 0x8f, 0x71, 0x81, 0x66, 0x61, 0x7d, 0x8c, 0x69,
  0x72, 0x91, 0x71, 0x5e, 0x8d, 0x9c, 0x77, 0xa2, 0x79, 0x7f, 0x76, 0x6d,
  0x6f, 0x72, 0x8b, 0x7f, 0x74, 0x85, 0x8e, 0xad, 0x77, 0x80, 0x6f, 0x6f,
  0x7a, 0x9a, 0x80, 0x67, 0x6c, 0x86, 0x9d, 0x75, 0xa1, 0x92, 0x85, 0x73,
  0x84, 0xb2, 0x74, 0x8c, 0x6d, 0x75, 0x7e, 0x6e, 0x79, 0x70, 0xb4, 0x7b,
  0x7f, 0x9e, 0x83, 0x9f, 0x6a, 0x7f, 0x7e, 0x8c, 0x7e, 0x76, 0x87, 0x83,
  0x7f, 0x8a, 0x78, 0x74, 0x86, 0x8c, 0x8f, 0x7a, 0x80, 0x6c, 0x74, 0x89,
  0x6b, 0x79, 0x7f, 0x77, 0x79, 0x7d, 0x8c, 0x75, 0x94, 0x84, 0x80, 0x76,
  0x77, 0x7e, 0x5d, 0x83, 0x6c, 0x92, 0x8a, 0x63, 0x9d, 0x81, 0x8a, 0x7c,
  0x82, 0x8d, 0x91, 0x82, 0x9a, 0x7c, 0x93, 0x8d, 0x90, 0x81, 0x9d, 0x93,
  0x84, 0x77, 0xa0, 0x7b, 0x7a, 0x86, 0x7d, 0x7f, 0x86, 0x81, 0x82, 0x86,
  0x9b, 0x8e, 0x8f, 0x6e, 0xa3, 0x82, 0x7f, 0x85, 0x96, 0x99, 0x96, 0x76,
  0x80, 0x98, 0x7e, 0x74, 0x87, 0x7d, 0x92, 0x90, 0x7f, 0x72, 0x70, 0x83,
  0x83, 0xa7, 0x78, 0x83, 0x8f, 0x82, 0x8f, 0x7f, 0x97, 0x75, 0xa4, 0x6d,
  0xa1, 0x63, 0x85, 0x9b, 0x8a, 0x6d, 0x75, 0x6d, 0x88, 0x90, 0x71, 0x77,
  0x84, 0x99, 0xc4, 0x8e, 0x5d, 0x83, 0x81, 0x68, 0x73, 0x81, 0x67, 0x7c,
  0x6b, 0x6e, 0xa6, 0xac, 0x95, 0x79, 0x92, 0x8c, 0x79, 0x58, 0x74, 0x8a,
  0x7e, 0x80, 0x78, 0x66, 0x8c, 0x95, 0x8c, 0x6e, 0x73, 0x6e, 0x98, 0x87,
  0x71, 0x69, 0x6d, 0x95, 0x67, 0x7a, 0x5e, 0x8d, 0x6f, 0x7f, 0x83, 0x84,
  0x8d, 0x76, 0x92, 0x7e, 0x75, 0x5f, 0x85, 0x8a, 0x69, 0x9c, 0x79, 0x64,
  0x7a, 0x87, 0x9a, 0x6c, 0x71, 0x82, 0x94, 0x81, 0x78, 0x8a, 0x61, 0x97,
  0x77, 0x85, 0x61, 0x9a, 0x61, 0x78, 0x8c, 0x5e, 0x84, 0x78, 0x9e, 0x65,
  0x61, 0x59, 0x6d, 0xa9, 0x89, 0x83, 0x8e, 0x6b, 0x8c, 0x7a, 0x9c, 0x74,
  0x8e, 0x84, 0x9c, 0x83, 0x7d, 0x81, 0x75, 0x97, 0x9d, 0x80, 0x7e, 0x9d,
  0x77, 0x67, 0x77, 0x74, 0x78, 0x7f, 0x82, 0x7e, 0x6f, 0x7a, 0x76, 0xa4,
  0x84, 0x84, 0x8a, 0x70, 0x92, 0x74, 0x97, 0x7f, 0x7a, 0x8d, 0xb0, 0x80,
  0x8f, 0x5f, 0x77, 0x6a, 0x9e, 0x85, 0x88, 0x9c, 0x78, 0x60, 0x97, 0x6a,
  0x8b, 0x6c, 0x74, 0xae, 0x5c, 0x71, 0x85, 0xa6, 0x93, 0x79, 0x73, 0x64,
  0x81, 0x91, 0x8d, 0x9f, 0x86, 0x8b, 0x9b, 0x96, 0x6c, 0x77, 0xb6, 0x63,
  0x74, 0x79, 0x7e, 0xa7, 0x9f, 0x70, 0x9d, 0x89, 0x9b, 0x7e, 0xa2, 0x78,
  0x51, 0x75, 0x73, 0x8a, 0x94, 0x7d, 0x5e, 0x62, 0x6c, 0x93, 0x86, 0x88,
  0x76, 0x77, 0x7e, 0x83, 0x6c, 0x71, 0x9a, 0x94, 0x66, 0x73, 0x78, 0x7e,
  0x87, 0x86, 0xa7, 0x77, 0xa0, 0x79, 0xa7, 0x80, 0x50, 0x81, 0x83, 0x64,
  0x65, 0x82, 0x75, 0x6b, 0x6d, 0x90, 0x8e, 0x89, 0x8a, 0x89, 0x6f, 0x8f,
  0x83, 0x93, 0x8a, 0xa8, 0x8d, 0x64, 0x75, 0x76, 0x7e, 0x96, 0x92, 0x6f,
  0x7a, 0x77, 0x7c, 0x76, 0x64, 0x7b, 0x81, 0x67, 0x71, 0x8a, 0x6d, 0x6c,
  0x65, 0x84, 0x96, 0x7b, 0xa0, 0x78, 0x67, 0x89, 0x90, 0x8e, 0x81, 0xac,
  0x93, 0x80, 0x80, 0x94, 0x64, 0x85, 0x97, 0x5c, 0x6e, 0x78, 0x73, 0x88,
  0x6b, 0x6a, 0x93, 0x70, 0x66, 0x91, 0x88, 0x7c, 0x77, 0x85, 0x80, 0x8c,
  0x8d, 0x79, 0x80, 0x93, 0xb0, 0x7e, 0x80, 0x99, 0x90, 0x7f, 0x87, 0xae,
  0x77, 0x7b, 0x8d, 0x6c, 0x73, 0x8b, 0x85, 0x96, 0x62, 0x9b, 0x8a, 0x9d,
  0x73, 0x84, 0x73, 0x6e, 0x77, 0x7c, 0x92, 0xa9, 0x76, 0x86, 0x95, 0x7e,
  0x7c, 0x7b, 0xa8, 0x85, 0x72, 0x78, 0x9d, 0x86, 0xa0, 0x7c, 0x8a, 0x6e,
  0x95, 0x7e, 0xa1, 0x6c, 0x66, 0xb3, 0xa4, 0x89, 0x6d, 0x9d, 0x6f, 0x63,
  0x77, 0x95, 0x88, 0x7c, 0x84, 0x72, 0x88, 0x7b, 0x78, 0x80, 0x94, 0x86,
  0x7a, 0x6c, 0x85, 0x6f, 0x81, 0x87, 0x87, 0x72, 0x7a, 0x89, 0x7c, 0x7e,
  0x70, 0xbf, 0x97, 0x8b, 0x6c, 0xa3, 0x92, 0x66, 0x73, 0x9e, 0x8b, 0x73,
  0x91, 0x66, 0x84, 0x6c, 0x75, 0x77, 0xaa, 0x70, 0x7a, 0x7b, 0x8a, 0x6a,
  0x80, 0x7e, 0x71, 0x6b, 0x69, 0x78, 0x81, 0x7c, 0x69, 0xb0, 0x8c, 0x6c,
  0x86, 0x85, 0x92, 0x76, 0x56, 0x91, 0x86, 0x76, 0x84, 0x7a, 0x89, 0x79,
  0x8d, 0x56, 0x91, 0x7f, 0x87, 0x88, 0x82, 0x7d, 0x71, 0x89, 0x9b, 0x69,
  0x5a, 0x75, 0x8b, 0x81, 0x83, 0x87, 0xa8, 0x82, 0x5f, 0x78, 0x89, 0x7e,
  0x64, 0x96, 0x7c, 0x7f, 0x87, 0x82, 0x82, 0x83, 0x8f, 0x62, 0xa0, 0x85,
  0x86, 0x8d, 0x7c, 0x9b, 0x6c, 0x69, 0x93, 0x6b, 0x77, 0x82, 0x73, 0x91,
  0x76, 0x91, 0xa2, 0x8a, 0x5c, 0x67, 0x89, 0x8b, 0x7e, 0x71, 0x8c, 0x89,
  0x71, 0x71, 0x88, 0x77, 0x75, 0x82, 0x83, 0x6e, 0x73, 0x95, 0x9b, 0x74,
  0x82, 0x79, 0xa7, 0x81, 0x84, 0x8a, 0x6a, 0x62, 0x72, 0x84, 0x92, 0x8a,
  0x67, 0x7f, 0x82, 0x7f, 0x6d, 0xb2, 0x79, 0x8e, 0x7f, 0x7d, 0x95, 0x85,
  0x79, 0x66, 0x8e, 0x80, 0x68, 0x84, 0x83, 0x85, 0x79, 0x73, 0x89, 0x76,
  0x6a, 0x7a, 0x61, 0x77, 0x6c, 0x8c, 0x7f, 0x7c, 0x69, 0x8f, 0x89, 0x7e,
  0x6e, 0x98, 0x7f, 0x6f, 0x78, 0x7b, 0x99, 0x7d, 0x85, 0x4b, 0x79, 0x84,
  0x5b, 0x91, 0x72, 0x8b, 0x79, 0x76, 0x84, 0x71, 0x63, 0x6d, 0x77, 0x78,
  0x90, 0x7b, 0x6c, 0x6d, 0x6e, 0x86, 0x7a, 0x87, 0x7b, 0x94, 0x81, 0x7e,
  0x78, 0x79, 0x91, 0x89, 0x70, 0x46, 0x62, 0x98, 0x7a, 0x9a, 0x6a, 0x8f,
  0x6b, 0x7a, 0x9b, 0x64, 0x74, 0x7e, 0x8a, 0x7e, 0x9e, 0x9c, 0x94, 0x71,
  0x70, 0x72, 0x85, 0x8b, 0x69, 0x76, 0x78, 0x8c, 0x93, 0x90, 0x8d, 0x8c,
  0x68, 0x4d, 0x8f, 0x8a, 0x80, 0x89, 0x77, 0x8a, 0x57, 0x82, 0x89, 0x6f,
  0x6c, 0x86, 0x74, 0x8d, 0x6e, 0x89, 0x89, 0x85, 0x9e, 0x56, 0x71, 0x9a,
  0x6b, 0x6d, 0x79, 0x86, 0x74, 0x82, 0x94, 0x79, 0x72, 0x88, 0x8f, 0x8d,
  0x6c, 0x90, 0x80, 0x8e, 0x85, 0x7b, 0xab, 0x9f, 0x70, 0x97, 0x64, 0x70,
  0x72, 0x69, 0x8a, 0x8a, 0x7a, 0x84, 0x78, 0x7b, 0x72, 0x9d, 0x70, 0x6b,
  0x7d, 0x79, 0x84, 0x88, 0x79, 0x76, 0x83, 0x87, 0x8c, 0x8e, 0x7a, 0xaa,
  0x7c, 0x6d, 0xa7, 0x91, 0x7d, 0x85, 0x8b, 0x6f, 0x72, 0x78, 0x87, 0x7b,
  0x77, 0x8a, 0x78, 0x6e, 0x67, 0x84, 0x7b, 0x6e, 0x7a, 0x96, 0x87, 0x97,
  0x6e, 0x5a, 0x94, 0x78, 0x82, 0x80, 0x7a, 0x96, 0x83, 0x7a, 0xa0, 0x98,
  0x7c, 0x7f, 0x8d, 0x6c, 0x8b, 0x96, 0x87, 0x77, 0x6e, 0x8b, 0x7c, 0x7f,
  0x5f, 0x79, 0x75, 0x82, 0x80, 0x83, 0x8e, 0x8d, 0x7f, 0x56, 0x75, 0x8a,
  0x85, 0x7a, 0x74, 0x92, 0x8d, 0x78, 0x93, 0x90, 0x7d, 0x84, 0x85, 0x77,
  0x9f, 0x81, 0x9c, 0x63, 0x80, 0xa7, 0x90, 0x7d, 0x6f, 0x7f, 0x84, 0x88,
  0xa5, 0x8c, 0x7e, 0x9b, 0x88, 0x60, 0x95, 0x64, 0x8f, 0x74, 0x71, 0x83,
  0x6e, 0x91, 0x7d, 0x8a, 0x8a, 0x75, 0x70, 0x72, 0x81, 0x7d, 0xa0, 0x95,
  0x80, 0x7e, 0xa5, 0x70, 0x97, 0x84, 0x73, 0x86, 0xaa, 0x90, 0x90, 0x88,
  0x8f, 0x85, 0x84, 0x87, 0x7a, 0x7c, 0x9d, 0x9b, 0x81, 0x7b, 0x77, 0x59,
  0x7b, 0x7d, 0x68, 0x79, 0x7f, 0x9e, 0x8d, 0x8f, 0x7a, 0x82, 0x81, 0x85,
  0x97, 0x8a, 0x6e, 0x7e, 0x86, 0x84, 0x95, 0x73, 0x95, 0xb9, 0x97, 0x81,
  0x6f, 0x66, 0x90, 0x88, 0x75, 0x84, 0x89, 0x73, 0x6a, 0x86, 0x74, 0x73,
  0x85, 0x8d, 0x6a, 0x9e, 0x8d, 0x64, 0x77, 0x7a, 0x85, 0x8c, 0x84, 0x94,
  0x7f, 0x70, 0x85, 0x77, 0x6d, 0xa1, 0xb5, 0x6f, 0x55, 0x73, 0x92, 0x6b,
  0x82, 0x8b, 0x95, 0x86, 0x7c, 0x80, 0x81, 0x70, 0x8f, 0x7f, 0x63, 0x89,
  0x97, 0x6a, 0x85, 0x82, 0x80, 0xb4, 0x8e, 0x6a, 0x8c, 0x74, 0x74, 0x70,
  0x6d, 0x8e, 0x88, 0x82, 0x77, 0x78, 0x89, 0x85, 0x99, 0x86, 0x88, 0x98,
  0xa6, 0x95, 0x7a, 0x7d, 0x95, 0x72, 0x59, 0x8b, 0x7d, 0x73, 0x8e, 0x75,
  0x67, 0x83, 0x93, 0x66, 0x77, 0x74, 0x71, 0x94, 0x7d, 0x76, 0x79, 0x84,
  0x67, 0x83, 0x84, 0x82, 0x76, 0x71, 0x5a, 0x9a, 0x9b, 0x6e, 0x5e, 0x84,
  0x9c, 0x91, 0x82, 0x8c, 0x72, 0x64, 0x88, 0x6d, 0x8e, 0xa2, 0x89, 0x79,
  0x76, 0x9b, 0xa1, 0x77, 0x69, 0x75, 0x9d, 0xa2, 0x47, 0x7f, 0x9c, 0xac,
  0x7f, 0x82, 0x95, 0x50, 0x73, 0x62, 0x89, 0x7d, 0xa2, 0x6c, 0x50, 0x87,
  0x74, 0x53, 0x53, 0x77, 0x77, 0x8d, 0x63, 0x7a, 0x5c, 0x89, 0x6b, 0x64,
  0x63, 0x87, 0xba, 0x70, 0x4b, 0x7c, 0xa6, 0x7a, 0x63, 0x7b, 0xc8, 0x84,
  0x7d, 0x68, 0x73, 0x68, 0x83, 0x76, 0x40, 0x82, 0x98, 0x57, 0x60, 0x87,
  0x63, 0x8d, 0x84, 0xa8, 0x7c, 0x7d, 0x7c, 0x6d, 0x5e, 0x83, 0xb9, 0x7a,
  0x4f, 0x96, 0x88, 0x78, 0x89, 0x88, 0xa0, 0x82, 0xb0, 0x85, 0x71, 0x80,
  0x80, 0x83, 0x72, 0x83, 0x85, 0x61, 0x66, 0x7b, 0x69, 0x7f, 0x90, 0x85,
  0x8f, 0x8e, 0x8f, 0x96, 0x74, 0x6f, 0xa6, 0x81, 0x78, 0x89, 0x7e, 0x87,
  0x6e, 0x7d, 0x91, 0x8c, 0x9d, 0x8b, 0x8a, 0x9c, 0x8f, 0x9d, 0x77, 0x7c,
  0x88, 0x7d, 0x72, 0x86, 0x79, 0x77, 0xa1, 0x7e, 0x8f, 0x83, 0x8a, 0x99,
  0x84, 0x7f, 0x77, 0x9b, 0x7f, 0x95, 0x8d, 0x7a, 0x7a, 0x7f, 0x7a, 0x90,
  0x6f, 0x8f, 0x7c, 0x8a, 0x92, 0x7d, 0x6d, 0xa1, 0x87, 0x6a, 0x55, 0x5b,
  0x75, 0xb6, 0x7d, 0x58, 0x49, 0x97, 0x97, 0x79, 0x58, 0x86, 0xc4, 0xa0,
  0x6a, 0x66, 0x82, 0x71, 0x83, 0x5e, 0xb6, 0x65, 0x74, 0x7c, 0x89, 0x68,
  0x6a, 0x6e, 0x3b, 0x84, 0xa5, 0x50, 0x61, 0x74, 0x69, 0xc6, 0x77, 0x63,
  0x6c, 0x7a, 0x7e, 0x6c, 0x4f, 0x6d, 0xc0, 0x6e, 0x67, 0x81, 0x8e, 0x7f,
  0xa2, 0x6b, 0xa9, 0x8c, 0x7f, 0x74, 0x82, 0x84, 0x67, 0x7b, 0x5f, 0x8e,
  0x87, 0x53, 0xa5, 0x84, 0x70, 0xa1, 0x80, 0x94, 0x8e, 0x8b, 0x8b, 0x8b,
  0x73, 0x7f, 0xa2, 0x97, 0x63, 0x99, 0xb6, 0x92, 0xb1, 0x7a, 0x9b, 0x92,
  0xab, 0x7a, 0x7b, 0xa7, 0x73, 0x87, 0x76, 0x90, 0x5f, 0x4d, 0x91, 0x74,
  0x7b, 0x83, 0x87, 0x92, 0x90, 0x89, 0x89, 0x86, 0x77, 0x80, 0x77, 0x85,
  0x8a, 0x88, 0xaf, 0x80, 0x79, 0x94, 0x8a, 0x9b, 0x6d, 0x7d, 0x72, 0x7f,
  0x71, 0x8b, 0x7c, 0x8b, 0x7e, 0x82, 0x83, 0x64, 0x80, 0x81, 0x92, 0x88,
  0x8c, 0x8d, 0x8f, 0x82, 0xa9, 0x76, 0x7a, 0x75, 0x71, 0x7e, 0x75, 0x80,
  0x95, 0x83, 0x79, 0x8e, 0x70, 0x92, 0x76, 0x7a, 0x76, 0x74, 0x8f, 0x87,
  0x95, 0x80, 0x81, 0x84, 0x88, 0x85, 0x81, 0x7e, 0x88, 0x77, 0x6b, 0x9b,
  0x8d, 0x84, 0x99, 0x74, 0x83, 0x7b, 0xa2, 0x83, 0x83, 0x6e, 0xa1, 0x86,
  0x89, 0x87, 0x66, 0x89, 0x77, 0x69, 0x86, 0x6b, 0x93, 0x8b, 0x97, 0x81,
  0xa3, 0x83, 0x85, 0x67, 0x9a, 0x82, 0x91, 0x82, 0x8e, 0x74, 0x63, 0x96,
  0x98, 0x8b, 0x8a, 0x94, 0x97, 0x7e, 0x68, 0x9a, 0x8c, 0x95, 0x7c, 0x8b,
  0x7e, 0x85, 0x6c, 0x8d, 0x62, 0x77, 0x8c, 0x7d, 0x86, 0x84, 0x86, 0x65,
  0x77, 0x9d, 0x97, 0x8b, 0x75, 0x66, 0x62, 0x93, 0x8d, 0x82, 0x92, 0x90,
  0x5f, 0x8a, 0x6f, 0x7e, 0x71, 0x88, 0x6a, 0x7b, 0x67, 0x88, 0x80, 0x97,
  0x60, 0x7f, 0x93, 0x77, 0x8a, 0x83, 0x71, 0x73, 0x73, 0x7e, 0x81, 0x84,
  0x8e, 0x88, 0x8d, 0x77, 0x8b, 0x8b, 0x8e, 0x84, 0x7e, 0x86, 0x86, 0x82,
  0x6e, 0x93, 0x77, 0x81, 0x6e, 0x7f, 0x7a, 0x8a, 0x78, 0x6e, 0x98, 0x8b,
  0x76, 0x76, 0x6c, 0x75, 0x73, 0x82, 0x7d, 0x91, 0xa2, 0x74, 0x82, 0x69,
  0x8e, 0x84, 0x6a, 0x8c, 0x93, 0x79, 0x7e, 0x7f, 0x7f, 0x88, 0x7d, 0x80,
  0x78, 0x6c, 0x9c, 0x81, 0x72, 0x8c, 0x7c, 0x92, 0x6f, 0x7f, 0x64, 0xb0,
  0xa2, 0x71, 0x6b, 0x9b, 0x89, 0x80, 0x79, 0x75, 0x9f, 0x9e, 0x65, 0x74,
  0xa2, 0x7d, 0xa2, 0x8a, 0x79, 0x76, 0x5c, 0x8b, 0xa7, 0x54, 0x9f, 0x73,
  0x6f, 0x8a, 0x8f, 0x95, 0xab, 0x82, 0x86, 0x86, 0xa4, 0x8b, 0x8f, 0x97,
  0xa8, 0x77, 0x80, 0x82, 0x8d, 0x87, 0x44, 0x80, 0x79, 0x87, 0x79, 0x82,
  0x80, 0x9a, 0x80, 0x76, 0x8c, 0x6b, 0x91, 0x8b, 0x78, 0x8c, 0x7b, 0x93,
  0x91, 0x84, 0x84, 0x86, 0x6f, 0x8a, 0x9a, 0x8f, 0x9e, 0x58, 0x83, 0x84,
  0x8a, 0x8b, 0x7f, 0x6e, 0x88, 0x7c, 0x90, 0x71, 0x74, 0x85, 0x91, 0x7c,
  0x7c, 0x76, 0x73, 0x87, 0x88, 0x86, 0x75, 0x85, 0x8b, 0x89, 0x75, 0x7d,
  0x68, 0x7e, 0x6c, 0x8d, 0x79, 0x99, 0x7a, 0x7a, 0x7e, 0x88, 0x90, 0x8d,
  0x7d, 0x88, 0x84, 0x72, 0x89, 0x78, 0xa8, 0x8a, 0x85, 0x83, 0x7a, 0x89,
  0x7e, 0x76, 0x67, 0xa3, 0x7d, 0x81, 0x81, 0x84, 0x65, 0xae, 0x98, 0x8c,
  0x81, 0x85, 0x75, 0x7a, 0x66, 0x7d, 0x83, 0x96, 0x7a, 0x71, 0x75, 0x73,
  0x7b, 0x7a, 0x81, 0x94, 0x88, 0x8b, 0x64, 0x86, 0x70, 0x66, 0x95, 0x8e,
  0x7e, 0x88, 0x86, 0x89, 0xa1, 0xa8, 0x85, 0x90, 0x5f, 0x82, 0x8f, 0x7a,
  0x89, 0x6b, 0x7a, 0x7c, 0x7a, 0x89, 0x72, 0x88, 0x89, 0x7d, 0x91, 0x80,
  0x88, 0x7c, 0x6d, 0x8c, 0x63, 0x80, 0x92, 0x8c, 0x91, 0x88, 0x80, 0x84,
  0x81, 0x88, 0x9a, 0x88, 0x7a, 0x83, 0xa3, 0x8a, 0x81, 0x89, 0x6e, 0x7b,
  0x62, 0x7b, 0x6b, 0x7a, 0x83, 0x91, 0x77, 0x7e, 0x91, 0x81, 0x7d, 0x8d,
  0x71, 0x7d, 0xa0, 0x9b, 0x8c, 0x7f, 0x83, 0x82, 0x9d, 0x8b, 0xa5, 0x96,
  0x82, 0x85, 0x79, 0x82, 0x85, 0x92, 0x44, 0x7c, 0x56, 0x7c, 0x61, 0x8a,
  0x92, 0x81, 0x85, 0x7c, 0x91, 0x93, 0x77, 0x93, 0x7c, 0x71, 0x90, 0x96,
  0x88, 0x74, 0x88, 0x7e, 0x98, 0x7f, 0x8b, 0x8b, 0x8c, 0x7e, 0x8b, 0x84,
  0x9e, 0x96, 0x51, 0x78, 0x73, 0x7d, 0x7b, 0x90, 0x88, 0x7a, 0x76, 0x90,
  0x85, 0x8e, 0x77, 0x92, 0x7b, 0x70, 0x90, 0x7d, 0x7a, 0x7e, 0x7c, 0x87,
  0xaf, 0x7f, 0x8b, 0x9b, 0x85, 0x84, 0x8b, 0x8a, 0x7d, 0x9b, 0x53, 0x76,
  0x62, 0x71, 0x6d, 0x7c, 0x92, 0x75, 0x5f, 0x87, 0x75, 0x7d, 0x74, 0x82,
  0x6d, 0x60, 0x6e, 0x72, 0x7a, 0x90, 0x7b, 0x89, 0x87, 0x7b, 0x8c, 0x7c,
  0x71, 0x87, 0x8f, 0x85, 0x8a, 0x6a, 0x8e, 0x89, 0x92, 0x99, 0x8a, 0x88,
  0x85, 0x75, 0x8f, 0x7b, 0x7d, 0x79, 0x96, 0x79, 0x76, 0x74, 0x8b, 0x8a,
  0x7f, 0x97, 0x7c, 0x81, 0x78, 0x77, 0x83, 0x80, 0x89, 0x71, 0x99, 0x74,
  0x80, 0x7f, 0x8c, 0x72, 0x86, 0x94, 0x78, 0x88, 0x82, 0x83, 0x8a, 0x7f,
  0x85, 0x7e, 0x93, 0x78, 0x66, 0x81, 0x8f, 0x92, 0x6c, 0x7c, 0x6b, 0x83,
  0x7b, 0x85, 0x8b, 0x79, 0x8c, 0x7f, 0x7f, 0x79, 0x7f, 0x99, 0x82, 0x7a,
  0x6e, 0x95, 0x6e, 0x86, 0x82, 0x8c, 0x81, 0x86, 0x88, 0x8e, 0x8f, 0x80,
  0x77, 0x7b, 0x75, 0x8d, 0x68, 0x7c, 0x88, 0x97, 0x7a, 0x7f, 0x83, 0x75,
  0x9c, 0x8d, 0x87, 0x85, 0x8f, 0x8b, 0x66, 0x79, 0x72, 0x82, 0x72, 0x80,
  0x88, 0xa2, 0x7b, 0x89, 0x96, 0x7f, 0x8e, 0x78, 0x6f, 0x76, 0x69, 0x78,
  0x7d, 0x7a, 0x7c, 0x95, 0x8b, 0x8e, 0x87, 0x7f, 0x7d, 0x87, 0x84, 0x85,
  0x79, 0x96, 0x66, 0x80, 0x81, 0x78, 0x73, 0x88, 0x87, 0x76, 0x6e, 0x76,
  0x77, 0x6c, 0x74, 0x87, 0x8a, 0x61, 0x95, 0x70, 0x72, 0x77, 0x79, 0x9b,
  0x82, 0x82, 0x7e, 0x7b, 0x72, 0x7c, 0x86, 0x8a, 0x82, 0x73, 0x8a, 0x68,
  0x86, 0x8d, 0x7a, 0x7b, 0x7a, 0x77, 0x7f, 0x6e, 0x76, 0x78, 0x82, 0x7b,
  0x72, 0x74, 0xa5, 0x7b, 0x5f, 0x84, 0x74, 0x8e, 0x7f, 0x85, 0x95, 0x87,
  0x74, 0x77, 0x91, 0x83, 0x78, 0x8e, 0x8d, 0x7e, 0x68, 0x85, 0x74, 0x87,
  0x78, 0x80, 0x85, 0x6c, 0x71, 0x71, 0x88, 0x6f, 0x6c, 0x6c, 0x90, 0x74,
  0x67, 0x69, 0x71, 0x98, 0x80, 0x7b, 0x8f, 0x81, 0x87, 0x7a, 0x92, 0x7e,
  0x7f, 0x9f, 0x87, 0x6d, 0x64, 0x89, 0x71, 0x86, 0x89, 0x7f, 0x71, 0x75,
  0x7d, 0x87, 0x90, 0x75, 0x71, 0x62, 0x99, 0x68, 0x68, 0x61, 0x80, 0x8f,
  0x6a, 0x75, 0x9f, 0x74, 0x80, 0x89, 0x70, 0x8c, 0x82, 0x8c, 0x65, 0x7c,
  0x65, 0x8a, 0x7f, 0x77, 0x7e, 0xa2, 0x70, 0x69, 0x88, 0x83, 0x77, 0x73,
  0x62, 0x75, 0x8c, 0x71, 0x93, 0x76, 0x7a, 0x7d, 0x7e, 0x8f, 0x8e, 0x75,
  0x7d, 0x80, 0x8d, 0x78, 0x6f, 0x80, 0x82, 0x6e, 0x89, 0x7a, 0x91, 0x95,
  0x82, 0x87, 0x68, 0x67, 0x7c, 0x70, 0x84, 0x8c, 0x87, 0x7d, 0x6b, 0x80,
  0x97, 0x81, 0x76, 0xac, 0x7f, 0x87, 0x81, 0x85, 0x6b, 0x7c, 0x91, 0x77,
  0x81, 0x72, 0x95, 0x7f, 0x9b, 0x7e, 0x63, 0x78, 0x77, 0x7c, 0x83, 0x8c,
  0x81, 0x6c, 0x7c, 0x8a, 0x7e, 0x76, 0x79, 0x7b, 0x74, 0x86, 0x82, 0x84,
  0x85, 0x89, 0x8b, 0x76, 0x81, 0x6a, 0x89, 0x84, 0x75, 0x77, 0x91, 0x7b,
  0x73, 0x5d, 0x6b, 0x88, 0x7a, 0x82, 0x79, 0x79, 0x77, 0x69, 0x75, 0x85,
  0x77, 0x64, 0x90, 0x75, 0x81, 0x6e, 0x6f, 0x8a, 0x82, 0x7f, 0x89, 0x79,
  0x78, 0x71, 0x7e, 0x85, 0x74, 0x7f, 0x7e, 0x82, 0x6f, 0x65, 0x87, 0x86,
  0x7f, 0x8a, 0x76, 0x7d, 0x9c, 0x81, 0x81, 0x8f, 0x7a, 0x89, 0x85, 0x7c,
  0x7d, 0x6b, 0x79, 0x6f, 0x74, 0x86, 0x90, 0x76, 0x7e, 0x9b, 0x70, 0x7c,
  0x78, 0x68, 0x8c, 0x88, 0x5a, 0x68, 0xa1, 0x7b, 0x7e, 0x99, 0x76, 0x74,
  0x82, 0x93, 0x72, 0x8e, 0x7e, 0x92, 0x7a, 0x83, 0xa3, 0x8e, 0x77, 0x4f,
  0x79, 0x8f, 0x8a, 0x81, 0x8b, 0x8a, 0x93, 0x7b, 0x75, 0x6d, 0x9d, 0x74,
  0x8b, 0x69, 0xa1, 0x93, 0x6c, 0x95, 0x72, 0x7e, 0xa3, 0x98, 0x85, 0x84,
  0x86, 0xad, 0x96, 0x8e, 0x8d, 0x90, 0x67, 0xae, 0x86, 0x7a, 0x64, 0x92,
  0x7e, 0x88, 0x91, 0x73, 0xa9, 0x78, 0x93, 0x70, 0x99, 0x7a, 0x7c, 0x72,
  0x92, 0x75, 0x5e, 0x9a, 0x9e, 0xa5, 0x82, 0x90, 0x7f, 0x8a, 0xb1, 0x88,
  0x95, 0x86, 0x6e, 0x89, 0x8a, 0x8f, 0x81, 0x98, 0x67, 0x61, 0x96, 0x6d,
  0x89, 0x86, 0x79, 0x85, 0x7d, 0x67, 0x78, 0x66, 0x91, 0x7b, 0x6d, 0x8e,
  0x96, 0x9d, 0x82, 0x88, 0x73, 0x7e, 0xb1, 0x7d, 0xa5, 0x9b, 0x79, 0x8b,
  0x89, 0x93, 0x94, 0x8c, 0x78, 0x68, 0x9a, 0x64, 0x88, 0x80, 0x87, 0x8f,
  0x71, 0x69, 0x86, 0x80, 0x84, 0x69, 0x57, 0x86, 0x96, 0x84, 0x9d, 0x7d,
  0x9a, 0x87, 0x93, 0x78, 0x8b, 0x9d, 0x7b, 0x85, 0x8a, 0x81, 0x83, 0x8c,
  0x75, 0x9c, 0x88, 0x7f, 0x74, 0x70, 0x83, 0x98, 0x92, 0x75, 0xa9, 0x6c,
  0x74, 0x7d, 0x6d, 0x8b, 0x8d, 0x6a, 0x83, 0x81, 0x89, 0x94, 0x80, 0x87,
  0x8a, 0xa3, 0x71, 0x69, 0x74, 0x76, 0x79, 0x91, 0x97, 0x71, 0x93, 0x82,
  0x84, 0x68, 0x99, 0x88, 0xb1, 0x69, 0x99, 0x7d, 0x7e, 0x7f, 0x77, 0x99,
  0x98, 0x7a, 0x80, 0x77, 0xa3, 0x8a, 0x85, 0x8a, 0x9a, 0xac, 0x6b, 0x89,
  0x94, 0xa6, 0x6f, 0xa1, 0xa9, 0x6a, 0x78, 0x80, 0x9c, 0x7d, 0x7d, 0x85,
  0x7e, 0x7c, 0x7f, 0x7b, 0x8f, 0x84, 0x98, 0x79, 0x99, 0x85, 0x8a, 0x8d,
  0x78, 0x72, 0x8f, 0x8b, 0x9f, 0x8d, 0xa7, 0x6f, 0x8a, 0x85, 0x7b, 0x8f,
  0x8c, 0x7a, 0x72, 0x8b, 0x78, 0x7c, 0x88, 0x99, 0x86, 0x8e, 0x69, 0x85,
  0x97, 0x79, 0x8a, 0x87, 0x87, 0x7e, 0x8f, 0x91, 0x4f, 0x73, 0x92, 0x7c,
  0x8b, 0x94, 0x8c, 0x6d, 0x80, 0x91, 0x83, 0xa1, 0x82, 0x7d, 0x81, 0x7b,
  0x69, 0x8d, 0x6f, 0x88, 0x87, 0x7a, 0x78, 0x8c, 0x8a, 0x76, 0x9b, 0x87,
  0x8a, 0x73, 0x8c, 0x8f, 0x75, 0x8f, 0x8e, 0x75, 0x7a, 0x70, 0x80, 0x8c,
  0x80, 0x8c, 0x80, 0x9c, 0x85, 0x73, 0x95, 0x87, 0x6c, 0x81, 0x75, 0x8c,
  0x64, 0x66, 0x7c, 0x7c, 0x8f, 0x81, 0x81, 0x7b, 0x89, 0x6b, 0xa1, 0x72,
  0x69, 0xa0, 0x72, 0x88, 0xa2, 0x7b, 0x79, 0x7a, 0x91, 0x9a, 0x7d, 0x87,
  0x9b, 0x79, 0x84, 0x92, 0x98, 0x86, 0x69, 0x7f, 0x73, 0x64, 0x7d, 0x73,
  0x98, 0x7d, 0x77, 0x79, 0x6a, 0x88, 0x86, 0x8c, 0x7a, 0x76, 0x86, 0x6c,
  0x79, 0x7b, 0x8d, 0x86, 0x8c, 0xa3, 0x91, 0x77, 0x7a, 0x8f, 0x7b, 0x78,
  0xa5, 0x64, 0x70, 0x6d, 0x9d, 0x8c, 0x78, 0x7c, 0x7b, 0x93, 0x7b, 0x82,
  0x7a, 0x74, 0x55, 0x80, 0x68, 0x77, 0xae, 0x6f, 0x77, 0x70, 0xac, 0x7b,
  0x92, 0x7a, 0x8e, 0x66, 0x7a, 0x7f, 0x57, 0x77, 0x82, 0x6a, 0x84, 0x85,
  0x86, 0x67, 0x57, 0x78, 0x86, 0x83, 0x8b, 0x82, 0x6b, 0x92, 0x70, 0x92,
  0x6a, 0x7e, 0xa0, 0x65, 0x58, 0x60, 0x9b, 0x7b, 0x7f, 0x7b, 0x95, 0x7f,
  0x70, 0x82, 0x67, 0x86, 0x98, 0x74, 0x60, 0x7e, 0x87, 0x5f, 0x72, 0x77,
  0x78, 0x92, 0x79, 0x83, 0x72, 0x83, 0x8b, 0x8d, 0x92, 0x76, 0x8f, 0x76,
  0x6b, 0x71, 0x94, 0x93, 0x7f, 0x85, 0x99, 0x84, 0x82, 0x79, 0x92, 0x78,
  0x93, 0x6a, 0x80, 0x8d, 0x82, 0x6d, 0x80, 0x79, 0x8c, 0x9a, 0x72, 0x77,
  0x78, 0x96, 0x79, 0x7b, 0x88, 0x89, 0x62, 0x76, 0x8a, 0x90, 0x85, 0x85,
  0x80, 0x97, 0x94, 0x8b, 0x98, 0x87, 0xab, 0x83, 0x88, 0x93, 0x91, 0x8c,
  0xa8, 0x7b, 0x7a, 0x87, 0x94, 0x8c, 0x82, 0x6e, 0x79, 0x8f, 0x7b, 0x85,
  0x75, 0x7d, 0x5c, 0x6e, 0x77, 0x60, 0x6c, 0x7f, 0x90, 0x72, 0x7c, 0x7b,
  0x79, 0xad, 0x66, 0x72, 0x7b, 0x62, 0x82, 0x6f, 0x8b, 0x7d, 0x74, 0x6b,
  0x82, 0x84, 0x7e, 0x83, 0x6d, 0x4b, 0x3f, 0x8f, 0x58, 0x7a, 0x7a, 0x76,
  0x8d, 0x5d, 0x8b, 0x65, 0x88, 0x69, 0x74, 0x5c, 0x68, 0x86, 0x3f, 0x7b,
  0x7d, 0x68, 0x68, 0x88, 0x6f, 0x72, 0x44, 0x66, 0x82, 0x60, 0x86, 0x81,
  0x74, 0x99, 0x7a, 0x97, 0x68, 0x76, 0x8c, 0x69, 0x96, 0x6f, 0x8b, 0x8d,
  0x81, 0x8d, 0x7c, 0x63, 0x67, 0x71, 0x69, 0x74, 0x85, 0x76, 0x59, 0x7b,
  0x70, 0x69, 0x66, 0x6b, 0x73, 0x85, 0x6f, 0x99, 0x69, 0x9b, 0x89, 0x96,
  0x7c, 0x68, 0x69, 0x71, 0x79, 0x71, 0x90, 0x8c, 0x7e, 0x82, 0x84, 0x5a,
  0x77, 0x82, 0x7a, 0x64, 0x7c, 0x73, 0x81, 0x82, 0x5f, 0x5a, 0x6f, 0x77,
  0x6e, 0x87, 0x6a, 0x85, 0x78, 0x89, 0x68, 0x90, 0x95, 0x5e, 0x66, 0x85,
  0x75, 0x8e, 0x74, 0x71, 0x69, 0x8a, 0x7c, 0x6c, 0x72, 0x7d, 0xad, 0x7e,
  0x69, 0x80, 0xbb, 0x7e, 0x93, 0x62, 0x8d, 0x79, 0x8e, 0x67, 0x83, 0x59,
  0x8c, 0x78, 0x79, 0x77, 0x8c, 0x83, 0x8b, 0x66, 0x80, 0x9b, 0x7b, 0x9c,
  0x93, 0x76, 0x6e, 0x93, 0x75, 0xb4, 0x92, 0x81, 0x60, 0x80, 0x8e, 0x62,
  0x88, 0x85, 0x95, 0x7d, 0x7d, 0x86, 0x78, 0x6f, 0x86, 0x46, 0x5e, 0x93,
  0x7f, 0xae, 0xc2, 0x9b, 0x9d, 0x9e, 0xb0, 0x84, 0x95, 0x7a, 0x7d, 0x87,
  0x84, 0x7c, 0x7a, 0xad, 0x85, 0x9d, 0x74, 0xa4, 0x6e, 0x84, 0x9b, 0x75,
  0x95, 0x5e, 0x8c, 0x81, 0x9f, 0x63, 0xa5, 0x84, 0x7d, 0xce, 0xc5, 0x91,
  0xb2, 0xcc, 0xa8, 0xb3, 0x99, 0x8c, 0x71, 0x82, 0x8b, 0x73, 0x73, 0x81,
  0x80, 0x9a, 0x79, 0x8e, 0x78, 0x7d, 0x81, 0x73, 0x80, 0x79, 0x78, 0x7e,
  0x7f, 0x7b, 0xa6, 0x7b, 0x97, 0x96, 0x77, 0x72, 0x88, 0x71, 0x81, 0x98,
  0x6c, 0x90, 0x71, 0x8c, 0x7d, 0x9b, 0x88, 0x66, 0x68, 0x7a, 0x85, 0x73,
  0x5c, 0x6a, 0x6b, 0x74, 0x6b, 0x8d, 0x7c, 0x73, 0x97, 0x88, 0x73, 0x87,
  0xae, 0x76, 0x4c, 0x8a, 0x79, 0x80, 0x7d, 0x60, 0x7b, 0x86, 0x92, 0x87,
  0x7b, 0x6e, 0xb0, 0x74, 0x6d, 0x86, 0x9c, 0x78, 0x93, 0x75, 0xb8, 0x7d,
  0x7d, 0x8c, 0x76, 0x6c, 0x87, 0x90, 0x62, 0x63, 0x9c, 0x83, 0x7a, 0x7b,
  0x93, 0x97, 0x81, 0x97, 0x5e, 0x7b, 0x6c, 0x83, 0x78, 0x8f, 0x92, 0x7e,
  0x6c, 0x9a, 0xb7, 0xa9, 0x83, 0x80, 0x7a, 0x71, 0x85, 0x78, 0x93, 0x8b,
  0x70, 0x5f, 0x4d, 0x62, 0x7b, 0x91, 0x8f, 0x92, 0xb0, 0x98, 0xa3, 0x93,
  0x61, 0x73, 0x73, 0x60, 0x6e, 0x6e, 0x60, 0xa8, 0x6b, 0xc2, 0xa3, 0xc8,
  0x7b, 0x8e, 0x73, 0x74, 0x86, 0x73, 0x74, 0x9e, 0x87, 0x9e, 0x90, 0x58,
  0x7a, 0xa3, 0x7b, 0x77, 0x9d, 0x8e, 0xa7, 0x97, 0x62, 0x93, 0x87, 0x6b,
  0x6f, 0x7a, 0x64, 0x87, 0x76, 0xa4, 0x69, 0x98, 0x80, 0x8b, 0x75, 0x76,
  0x82, 0x74, 0x7c, 0x92, 0x6b, 0x84, 0xbd, 0x6b, 0x76, 0x6b, 0x62, 0x7c,
  0x92, 0x81, 0x77, 0x8f, 0x4a, 0x8e, 0x63, 0x86, 0x8d, 0x94, 0x99, 0x78,
  0x77, 0x79, 0x94, 0x72, 0x86, 0x6a, 0x7d, 0x7d, 0x67, 0x5b, 0x81, 0x73,
  0x8f, 0x7c, 0x9a, 0x89, 0x8c, 0xac, 0x7b, 0x70, 0x73, 0x88, 0x65, 0x96,
  0x85, 0x7a, 0x6a, 0x98, 0x9c, 0x8c, 0x84, 0x7b, 0x78, 0x90, 0x83, 0x8a,
  0x79, 0x78, 0x81, 0x7c, 0x76, 0x75, 0x67, 0x6c, 0x82, 0x82, 0x90, 0x78,
  0xa9, 0xb3, 0x75, 0x7b, 0x99, 0x72, 0x6f, 0x81, 0x89, 0x86, 0x67, 0x8f,
  0xb0, 0x99, 0x87, 0x61, 0x83, 0x7a, 0x85, 0x82, 0x83, 0x93, 0x79, 0x94,
  0x79, 0x85, 0x89, 0x6e, 0x99, 0x78, 0x9e, 0x86, 0x77, 0x94, 0x81, 0x89,
  0x95, 0x8f, 0x6f, 0x84, 0x7d, 0x90, 0x73, 0x91, 0x99, 0xa0, 0x8a, 0x90,
  0x70, 0x7d, 0x99, 0x83, 0xa1, 0x7f, 0x7e, 0x80, 0x8f, 0x90, 0x8f, 0x79,
  0x97, 0x6c, 0x86, 0x7a, 0xa6, 0x73, 0x77, 0x8c, 0x80, 0x91, 0x69, 0x6c,
  0x82, 0x91, 0x78, 0x8d, 0x7a, 0x98, 0x97, 0x71, 0x7d, 0x82, 0x8a, 0x8b,
  0x78, 0x83, 0x8b, 0x89, 0x90, 0x7e, 0x97, 0x74, 0x95, 0x84, 0x7c, 0x70,
  0x93, 0x71, 0x5f, 0x8e, 0x5d, 0x88, 0x59, 0x84, 0x71, 0x80, 0x69, 0x85,
  0x78, 0x86, 0x90, 0x65, 0x6c, 0x79, 0xa7, 0x7d, 0x71, 0x6a, 0x85, 0x8a,
  0x9b, 0x7e, 0x89, 0x8a, 0x71, 0x7b, 0x8b, 0x97, 0x6e, 0x83, 0x5f, 0x94,
  0x72, 0x98, 0x60, 0x99, 0x69, 0x7b, 0x8a, 0x7e, 0x84, 0x9e, 0x93, 0x5b,
  0x7c, 0x99, 0x97, 0x6e, 0xa5, 0x5d, 0x82, 0x94, 0x9c, 0x8e, 0x78, 0x85,
  0x82, 0x62, 0x8a, 0x6f, 0x92, 0x87, 0x65, 0x8a, 0x8c, 0x63, 0x74, 0x78,
  0x7f, 0x8d, 0x6e, 0x84, 0x81, 0x91, 0x74, 0x56, 0x90, 0x66, 0x78, 0x79,
  0x87, 0x88, 0x71, 0x91, 0x81, 0x7e, 0x6d, 0x69, 0xa2, 0x8b, 0xa9, 0x6e,
  0x85, 0x83, 0x5b, 0x92, 0x7e, 0x6a, 0x6b, 0x73, 0x70, 0x66, 0x83, 0x8a,
  0x83, 0x88, 0x71, 0x7e, 0x6c, 0x85, 0x89, 0xa7, 0x8a, 0x7e, 0x86, 0x7d,
  0x7f, 0x82, 0x8a, 0x80, 0x87, 0x62, 0x54, 0x7e, 0x8a, 0x5c, 0x59, 0x6b,
  0x5b, 0x82, 0x71, 0x79, 0x7b, 0x87, 0x85, 0x7f, 0x76, 0x92, 0x69, 0x6f,
  0x54, 0x87, 0xb2, 0xa4, 0x53, 0x7d, 0x5e, 0x8e, 0x96, 0x8d, 0x7a, 0x7b,
  0x6b, 0x75, 0x5c, 0x90, 0x7d, 0x5f, 0x53, 0x8b, 0x53, 0x72, 0x52, 0x8f,
  0x8d, 0x8c, 0x86, 0x73, 0x5b, 0x84, 0x9b, 0x6a, 0x6f, 0x83, 0x9a, 0x6b,
  0x74, 0x63, 0x90, 0x85, 0x7b, 0x7b, 0x86, 0x79, 0x82, 0x7f, 0x91, 0x7d,
  0x7d, 0x9c, 0x87, 0xa3, 0x84, 0x7d, 0x5e, 0x78, 0x7c, 0x85, 0x8c, 0x74,
  0x7c, 0x95, 0xa1, 0x8c, 0x7f, 0x8d, 0x99, 0xa0, 0x8a, 0x51, 0x9e, 0x89,
  0x90, 0x8d, 0x6f, 0x8b, 0x96, 0x7f, 0x99, 0x8c, 0x8b, 0x7f, 0x67, 0x7a,
  0xad, 0x82, 0x85, 0x79, 0x84, 0x7d, 0x72, 0x94, 0x84, 0x8b, 0x8a, 0x58,
  0x86, 0x9a, 0x90, 0x7f, 0x6f, 0x88, 0x5a, 0x84, 0x8b, 0x88, 0x7c, 0x6f,
  0x74, 0x70, 0x82, 0x68, 0x8c, 0x7d, 0x5a, 0x9c, 0x87, 0x85, 0x8c, 0x60,
  0x84, 0x80, 0x83, 0x88, 0x87, 0x73, 0x6f, 0x5b, 0x79, 0x9f, 0x83, 0x70,
  0x81, 0x71, 0x76, 0x86, 0x88, 0x7a, 0x7d, 0x6c, 0x86, 0x9d, 0x81, 0x7b,
  0x7a, 0x81, 0x58, 0x72, 0x75, 0x7b, 0x97, 0x77, 0x8c, 0x87, 0x74, 0x8e,
  0x6c, 0x88, 0x7e, 0x59, 0x72, 0x8d, 0x80, 0x4f, 0x77, 0x7a, 0x80, 0x73,
  0x76, 0x5d, 0x81, 0x79, 0x77, 0x8b, 0x72, 0xa5, 0x75, 0x6a, 0x62, 0x92,
  0x7f, 0x8a, 0x65, 0x83, 0x94, 0x8c, 0x71, 0x86, 0x6e, 0x9b, 0x9e, 0x74,
  0x76, 0x85, 0x7b, 0x63, 0x8b, 0x54, 0x9c, 0x7c, 0x87, 0x8a, 0x74, 0x7b,
  0x97, 0x6b, 0x99, 0x8b, 0x7d, 0x86, 0x8a, 0x92, 0xaa, 0x82, 0x78, 0x79,
  0x71, 0x8a, 0x80, 0x6d, 0x77, 0x7e, 0x84, 0x7e, 0x61, 0x88, 0x87, 0xb2,
  0x76, 0x5b, 0x7f, 0x79, 0x8b, 0x86, 0x76, 0x86, 0x7d, 0x7c, 0x8e, 0x81,
  0x68, 0x79, 0x67, 0x86, 0x6e, 0x7f, 0x76, 0x84, 0x76, 0x70, 0x71, 0x83,
  0x81, 0x8e, 0x97, 0x6c, 0xa2, 0x89, 0x65, 0x95, 0x76, 0x80, 0x68, 0x70,
  0x7b, 0x90, 0x65, 0x6e, 0x6c, 0x83, 0x61, 0x66, 0x8b, 0x6b, 0x5b, 0x7a,
  0x68, 0x7c, 0x72, 0x7b, 0x63, 0x84, 0x72, 0x7c, 0x79, 0x80, 0x6a, 0x59,
  0x91, 0x7c, 0x74, 0x5b, 0x75, 0x6f, 0x73, 0x70, 0x89, 0x71, 0x7f, 0x65,
  0x7b, 0x96, 0x71, 0x8c, 0x7f, 0x5f, 0x6a, 0x90, 0x64, 0x62, 0x6d, 0x8b,
  0x83, 0x81, 0x78, 0x82, 0x7b, 0x7d, 0x80, 0x74, 0x7c, 0x89, 0x79, 0x64,
  0x83, 0x79, 0x88, 0x74, 0x7b, 0x6f, 0x6c, 0x61, 0x80, 0x83, 0x84, 0x85,
  0x83, 0x69, 0x6d, 0x7c, 0x76, 0x7a, 0x56, 0x80, 0x90, 0x75, 0x83, 0x6d,
  0x64, 0x97, 0x9c, 0x7e, 0x7a, 0x88, 0x8d, 0x7e, 0x89, 0x56, 0x95, 0x83,
  0x90, 0x7b, 0x7f, 0x7c, 0x79, 0x81, 0x87, 0x7b, 0x6f, 0x9a, 0x7d, 0x79,
  0x77, 0x7d, 0x63, 0x7b, 0x8e, 0x78, 0x89, 0x79, 0x80, 0x84, 0x70, 0x8d,
  0x7f, 0x72, 0x8b, 0x8c, 0x6f, 0x64, 0xaa, 0x8c, 0x75, 0x81, 0x7d, 0x82,
  0x95, 0x99, 0x9a, 0x5f, 0x74, 0x85, 0x74, 0x8b, 0x83, 0x7c, 0x6f, 0x67,
  0x69, 0x79, 0x77, 0x84, 0x82, 0x80, 0x83, 0x74, 0xa9, 0x91, 0x83, 0x98,
  0x7b, 0x8f, 0x81, 0x81, 0x86, 0x7f, 0x80, 0x78, 0x7f, 0x85, 0x8a, 0x69,
  0x91, 0x67, 0x6f, 0x90, 0x81, 0x7f, 0x5a, 0x6a, 0x71, 0x7d, 0x69, 0x88,
  0x6a, 0xa3, 0x7e, 0x70, 0x8d, 0x7c, 0x91, 0x76, 0x7d, 0x70, 0x8d, 0x76,
  0x7f, 0x72, 0x82, 0x6d, 0x8a, 0x97, 0x8b, 0x7a, 0x99, 0x61, 0x66, 0xa7,
  0x8d, 0x71, 0x54, 0x69, 0x7c, 0x91, 0x81, 0x71, 0x7d, 0x82, 0x96, 0x8a,
  0x82, 0x77, 0xa1, 0x63, 0x9c, 0x7c, 0x90, 0x8f, 0x80, 0x79, 0x84, 0x6d,
  0x85, 0x86, 0x8f, 0x81, 0xb3, 0x79, 0x79, 0x7c, 0x91, 0x83, 0x4b, 0x8f,
  0x8b, 0x79, 0x79, 0x68, 0x74, 0x91, 0x98, 0x8a, 0x68, 0x75, 0x8c, 0x7c,
  0xaf, 0x61, 0x9d, 0x9c, 0x83, 0x86, 0x6d, 0x8d, 0x6f, 0x85, 0x88, 0x86,
  0xbb, 0x7b, 0x6b, 0x72, 0x70, 0x7d, 0x6f, 0x7d, 0xb7, 0x8e, 0x75, 0x6c,
  0x87, 0x89, 0x75, 0x8b, 0x83, 0x71, 0x7a, 0x77, 0xbb, 0x60, 0xa9, 0x8c,
  0x85, 0x89, 0x8a, 0xb0, 0x96, 0xa7, 0xa5, 0x75, 0xa7, 0x88, 0x7f, 0x8f,
  0x92, 0x74, 0x64, 0xbb, 0x95, 0x74, 0x78, 0x90, 0xa7, 0x9b, 0x97, 0x97,
  0xa9, 0x53, 0x70, 0x78, 0xa5, 0x7a, 0x4d, 0x82, 0x67, 0x8d, 0x71, 0x84,
  0x7e, 0xac, 0x96, 0x7f, 0xaf, 0x7f, 0x86, 0x69, 0x84, 0x8a, 0x76, 0x88,
  0x85, 0x83, 0x8b, 0x5e, 0x79, 0x7b, 0xa2, 0x79, 0x88, 0x72, 0x8f, 0x7f,
  0x76, 0x71, 0x96, 0x82, 0x74, 0x6d, 0x8d, 0x7b, 0x72, 0x8c, 0x8d, 0x7c,
  0x98, 0x90, 0x75, 0x88, 0x86, 0x81, 0x81, 0x81, 0x86, 0x7d, 0x8f, 0x71,
  0x8f, 0x8d, 0x97, 0x72, 0x82, 0x71, 0x6d, 0x83, 0x6a, 0x84, 0x97, 0x8e,
  0x81, 0x6b, 0x67, 0x78, 0x83, 0x7d, 0x81, 0x85, 0xa1, 0x8d, 0x7c, 0x8d,
  0x75, 0x85, 0x8a, 0x86, 0x87, 0x77, 0x8e, 0x75, 0x85, 0x8d, 0x93, 0x7d,
  0x92, 0x7f, 0x6b, 0x70, 0x71, 0xa2, 0x7c, 0x81, 0x71, 0x8f, 0x84, 0x6b,
  0x94, 0x6e, 0x8c, 0x7f, 0x8e, 0x93, 0x83, 0x92, 0x9a, 0x88, 0x7d, 0x7e,
  0x79, 0x99, 0xa8, 0x6c, 0xa8, 0x7a, 0x93, 0x98, 0x86, 0x79, 0x7a, 0x8c,
  0x7d, 0x8e, 0x7e, 0xaa, 0x85, 0x7b, 0x97, 0x7c, 0x8e, 0x5a, 0xaa, 0x67,
  0x5d, 0x89, 0x5e, 0x95, 0x78, 0x5f, 0x79, 0x85, 0x59, 0x82, 0x69, 0xa6,
  0x86, 0x58, 0x52, 0x77, 0x8d, 0x9c, 0x43, 0x65, 0x9b, 0x90, 0x4f, 0x95,
  0x82, 0x6c, 0x7c, 0x66, 0x75, 0x85, 0xad, 0x5d, 0x7f, 0x8c, 0x99, 0x8c,
  0x95, 0x8f, 0x6d, 0x92, 0x96, 0x6e, 0x78, 0x83, 0x90, 0x79, 0x6e, 0x83,
  0x8d, 0x97, 0xa2, 0x77, 0x98, 0x85, 0x62, 0x96, 0x82, 0x91, 0x7d, 0x92,
  0x7a, 0x9f, 0x8f, 0x61, 0x87, 0x84, 0x8e, 0xa0, 0xaa, 0x81, 0x72, 0x96,
  0x90, 0x6b, 0x78, 0xa4, 0x87, 0x83, 0x8f, 0x7b, 0x91, 0x87, 0xa4, 0x92,
  0x9b, 0x6a, 0x81, 0x8a, 0x63, 0x7f, 0x85, 0x9b, 0x87, 0x96, 0x87, 0x72,
  0x8c, 0x80, 0x81, 0x83, 0x8e, 0x82, 0x7d, 0x87, 0x9f, 0x5b, 0x83, 0x86,
  0x83, 0x8b, 0xa1, 0x78, 0x9f, 0x7f, 0xa7, 0x83, 0x9c, 0x94, 0x84, 0x6a,
  0x80, 0x85, 0x6c, 0x8f, 0x89, 0x97, 0x82, 0x93, 0x93, 0xad, 0x90, 0x8b,
  0x73, 0x87, 0x8a, 0x8f, 0x84, 0x60, 0x84, 0x75, 0x7d, 0x90, 0x99, 0x86,
  0x95, 0x7d, 0x90, 0x87, 0x81, 0x71, 0x89, 0x6d, 0x7e, 0x7a, 0x82, 0xa7,
  0x8d, 0x18, 0x64, 0x90, 0x67, 0x91, 0x6f, 0x81, 0x7f, 0x48, 0x82, 0x5c,
  0x72, 0x85, 0x87, 0x84, 0x5e, 0x4d, 0x21, 0x94, 0x88, 0x82, 0x21, 0x43,
  0x5a, 0x91, 0x6a, 0x89, 0x75, 0x93, 0x83, 0x6b, 0x62, 0x23, 0x86, 0x6f,
  0x63, 0xc2, 0x73, 0x79, 0x83, 0x49, 0x83, 0x90, 0x84, 0x87, 0x7a, 0x8d,
  0x75, 0x6d, 0x2c, 0x7d, 0x96, 0x88, 0x50, 0x60, 0x72, 0x78, 0x73, 0x88,
  0x82, 0x8e, 0x80, 0x6a, 0x70, 0x40, 0xa3, 0x65, 0x73, 0xba, 0x65, 0x86,
  0x94, 0x52, 0x8e, 0x85, 0x79, 0x79, 0x84, 0x8a, 0x96, 0x76, 0x35, 0x8c,
  0x99, 0xa6, 0x4b, 0x7a, 0x6d, 0x6a, 0x5a, 0x9d, 0x5e, 0x99, 0x7d, 0x77,
  0x6c, 0x5d, 0x8d, 0x6b, 0x58, 0x8f, 0x84, 0x83, 0x9e, 0x6a, 0x8e, 0x87,
  0x85, 0x67, 0x82, 0x87, 0x93, 0x75, 0x59, 0x69, 0x84, 0xa8, 0x87, 0x8a,
  0xa0, 0x7e, 0x57, 0x8c, 0x67, 0x8a, 0x6b, 0xa8, 0x78, 0x60, 0x97, 0x73,
  0x6d, 0x99, 0xbe, 0x96, 0x8d, 0x6b, 0x74, 0x96, 0x7b, 0x6e, 0x91, 0x7d,
  0x9a, 0x6f, 0x8a, 0x90, 0x87, 0x8b, 0x91, 0x91, 0x79, 0x67, 0x77, 0x75,
  0x7d, 0x6c, 0x86, 0xa1, 0x8c, 0x65, 0x70, 0x89, 0x81, 0x7b, 0x8a, 0x82,
  0x86, 0x84, 0x83, 0x8b, 0x84, 0x8b, 0x8a, 0x78, 0x8b, 0x82, 0x98, 0x8a,
  0x86, 0x6b, 0x57, 0x73, 0x6f, 0x99, 0x6f, 0x84, 0x90, 0xa5, 0x6c, 0x83,
  0x7b, 0x4b, 0x6b, 0x98, 0x7f, 0x7e, 0x8b, 0x75, 0x8c, 0x6e, 0x8d, 0x82,
  0x8d, 0x8c, 0x78, 0x7f, 0x92, 0x87, 0x70, 0x87, 0x7d, 0x64, 0x5d, 0x66,
  0x75, 0x85, 0x75, 0x7d, 0x86, 0x94, 0x6b, 0x81, 0x85, 0x3d, 0x8e, 0x91,
  0x72, 0xa5, 0x6c, 0x81, 0x8a, 0x64, 0x86, 0x84, 0x91, 0x88, 0x8a, 0x84,
  0x7c, 0x91, 0x55, 0x79, 0x95, 0x77, 0x4e, 0x7f, 0x72, 0x8a, 0x6f, 0x87,
  0x86, 0x93, 0x62, 0x80, 0x70, 0x46, 0x8e, 0x81, 0x59, 0xa3, 0x8b, 0x8e,
  0x8a, 0x59, 0x71, 0x9c, 0x8d, 0x7b, 0x7d, 0x87, 0x76, 0x82, 0x67, 0x80,
  0x7c, 0x86, 0x53, 0x8a, 0x70, 0x84, 0x68, 0x78, 0x80, 0x8b, 0x75, 0x8b,
  0x87, 0x6b, 0x94, 0x7c, 0x5d, 0xa0, 0x87, 0x8e, 0x87, 0x6f, 0x81, 0x96,
  0x91, 0x7e, 0x93, 0x7d, 0x97, 0x69, 0x6e, 0x93, 0x7d, 0x99, 0x62, 0xa2,
  0x7c, 0x83, 0x6d, 0x84, 0x7a, 0x83, 0x74, 0x96, 0x97, 0x87, 0x8f, 0x87,
  0x92, 0xa4, 0x84, 0x7e, 0x87, 0x74, 0x7f, 0x9f, 0x76, 0x6e, 0x8f, 0x86,
  0x8f, 0x8c, 0x9f, 0x6d, 0x8b, 0x76, 0x68, 0x85, 0x7b, 0x8d, 0x81, 0x87,
  0x81, 0x9e, 0x8a, 0x95, 0x88, 0x7a, 0x8d, 0x80, 0x89, 0x94, 0x87, 0x74,
  0x83, 0x82, 0x6e, 0x7e, 0x78, 0x8c, 0x7e, 0x74, 0x92, 0x72, 0x89, 0x80,
  0x7c, 0x76, 0x9b, 0x7d, 0x7a, 0x78, 0x6d, 0x8f, 0x84, 0x88, 0x79, 0x80,
  0x8d, 0x6c, 0x8c, 0x85, 0x85, 0x93, 0x7a, 0x8c, 0x78, 0x78, 0x88, 0x62,
  0x7e, 0x8e, 0x81, 0x86, 0x8d, 0x7b, 0x98, 0x7c, 0x8d, 0x88, 0x74, 0x81,
  0x72, 0x84, 0x76, 0x88, 0x95, 0x83, 0x7c, 0x89, 0x9b, 0x81, 0x8d, 0x89,
  0x64, 0x72, 0x87, 0x8b, 0x8c, 0x99, 0x85, 0x77, 0x7e, 0x81, 0x8d, 0x83,
  0x8d, 0x75, 0x8d, 0x78, 0x83, 0x84, 0x7a, 0x80, 0x6e, 0x84, 0x74, 0x76,
  0x77, 0x7e, 0x83, 0x81, 0x96, 0x88, 0x74, 0x92, 0x73, 0x83, 0x7b, 0x87,
  0x89, 0x9f, 0x7e, 0x70, 0x8e, 0x97, 0x8f, 0x80, 0x7c, 0x6d, 0x8b, 0x86,
  0x6d, 0x8d, 0x83, 0x90, 0x82, 0x88, 0x85, 0x89, 0x78, 0x77, 0x89, 0x7e,
  0x77, 0x74, 0x82, 0x7c, 0x9b, 0x78, 0x73, 0x7f, 0x94, 0x8d, 0x78, 0x84,
  0x77, 0x91, 0x6f, 0x7b, 0x8c, 0x81, 0x85, 0x7d, 0x99, 0x95, 0x8d, 0x70,
  0xa7, 0x80, 0x90, 0x8b, 0x74, 0x83, 0x94, 0x80, 0x98, 0x75, 0x75, 0xa8,
  0x9d, 0x76, 0x64, 0x7e, 0x7e, 0x77, 0x7c, 0x8e, 0x65, 0x91, 0x74, 0x87,
  0x80, 0x81, 0x7b, 0x82, 0xa8, 0xa1, 0x9c, 0x86, 0x7d, 0x7e, 0x74, 0x8f,
  0x81, 0x76, 0x87, 0x7b, 0x87, 0x80, 0x94, 0x93, 0x82, 0x83, 0x7d, 0x73,
  0x8e, 0x70, 0x8b, 0x72, 0x66, 0x7e, 0x7f, 0x73, 0x86, 0x97, 0xa0, 0x87,
  0x92, 0x74, 0xa5, 0x8d, 0x5c, 0x79, 0x63, 0x90, 0x8b, 0x66, 0x85, 0x8b,
  0x6b, 0x89, 0x87, 0x5c, 0x89, 0x97, 0xb1, 0x8d, 0x8d, 0x84, 0x8e, 0x92,
  0x7f, 0x82, 0x92, 0x75, 0x84, 0x91, 0x91, 0x64, 0x96, 0x71, 0xa5, 0x7e,
  0x6e, 0x8f, 0x65, 0x82, 0x9a, 0x6c, 0x96, 0x9c, 0x54, 0x7d, 0x87, 0x6b,
  0x7d, 0x84, 0x81, 0x65, 0x74, 0x76, 0x8e, 0x9a, 0x6d, 0x89, 0x7d, 0x7b,
  0x8f, 0x7b, 0x75, 0x80, 0x8d, 0x84, 0x5e, 0x76, 0x8d, 0x8b, 0x6d, 0x96,
  0x7b, 0x5e, 0x87, 0x8b, 0x6a, 0x81, 0x7c, 0x93, 0x71, 0x7d, 0x88, 0x8b,
  0x82, 0x71, 0x79, 0x7c, 0x75, 0x88, 0x88, 0x8a, 0x8d, 0x88, 0x7e, 0xa1,
  0x85, 0x90, 0x8d, 0x72, 0x8b, 0x85, 0x7c, 0x89, 0x8b, 0x83, 0x9c, 0x60,
  0x8c, 0x6e, 0x6f, 0x91, 0x79, 0x60, 0x81, 0x7b, 0x99, 0x8c, 0x8e, 0x90,
  0x63, 0x72, 0x9d, 0x73, 0x79, 0x82, 0xa1, 0x81, 0x9d, 0x8d, 0x6f, 0x8e,
  0x7b, 0x92, 0x93, 0x8a, 0x8e, 0x8d, 0x6b, 0x79, 0x6e, 0x75, 0x80, 0x6b,
  0x81, 0x8e, 0x89, 0x88, 0x8e, 0x89, 0x88, 0x61, 0x6b, 0x6b, 0x72, 0x73,
  0x6f, 0x7b, 0x96, 0x5c, 0x8f, 0x72, 0x80, 0x90, 0x52, 0x64, 0xcf, 0x7d,
  0x65, 0x74, 0x6b, 0x8e, 0x7b, 0x75, 0x92, 0x74, 0x99, 0xa0, 0xa0, 0x87,
  0x8b, 0xa7, 0x69, 0x9f, 0x63, 0x86, 0x80, 0x78, 0x86, 0x74, 0x53, 0x75,
  0x7e, 0x69, 0x90, 0x94, 0x58, 0x63, 0x96, 0x6e, 0x84, 0x67, 0x8a, 0x97,
  0x6f, 0x81, 0x86, 0x8a, 0x81, 0x8e, 0x8d, 0x76, 0x6a, 0x7e, 0x8d, 0x81,
  0x6e, 0x73, 0x73, 0x8c, 0x83, 0x7e, 0x96, 0x9a, 0x97, 0x7b, 0x71, 0x8a,
  0x7f, 0x6c, 0x7c, 0x7e, 0x73, 0x6e, 0x94, 0x77, 0xa8, 0x7d, 0x81, 0x99,
  0x82, 0x91, 0x8c, 0x75, 0x84, 0x92, 0x71, 0x83, 0x65, 0x9b, 0x99, 0x84,
  0x90, 0x6f, 0x8b, 0xa7, 0x87, 0x9b, 0x94, 0x9b, 0x90, 0x7a, 0x86, 0x85,
  0x74, 0x78, 0x85, 0x81, 0x87, 0x5e, 0x7e, 0x63, 0x87, 0x79, 0x70, 0x80,
  0x91, 0x96, 0x6c, 0x99, 0x6d, 0x87, 0x8e, 0x76, 0x80, 0x72, 0x9b, 0xa0,
  0x7f, 0x97, 0x7d, 0x90, 0x81, 0x75, 0xbf, 0x79, 0x7c, 0x82, 0x8a, 0x83,
  0x82, 0x70, 0x49, 0x6d, 0xb4, 0x7f, 0x59, 0x84, 0x7c, 0xa7, 0x6e, 0x6d,
  0x59, 0x6b, 0x74, 0x76, 0x70, 0x74, 0x4f, 0x56, 0x7c, 0x5c, 0xb8, 0x84,
  0x7b, 0x68, 0xae, 0x6e, 0x6e, 0x69, 0x8b, 0x8a, 0x85, 0x89, 0x89, 0x82,
  0xa8, 0xad, 0x7d, 0x8d, 0x82, 0x78, 0x6a, 0x88, 0x57, 0x8c, 0x67, 0x70,
  0x71, 0x78, 0x58, 0x81, 0x78, 0x73, 0x97, 0x83, 0x9e, 0x6a, 0xa1, 0x66,
  0x72, 0x68, 0x9b, 0x6c, 0x8e, 0x7a, 0xa3, 0x80, 0x9a, 0xa1, 0xaf, 0x9c,
  0x91, 0x93, 0x87, 0x7d, 0x81, 0x7d, 0x73, 0x6e, 0xa9, 0x78, 0x73, 0xac,
  0x87, 0x99, 0x78, 0x70, 0xa1, 0x7d, 0x7a, 0x7d, 0x66, 0x7d, 0x73, 0x72,
  0x88, 0x5c, 0x64, 0x9c, 0x86, 0x81, 0x86, 0x71, 0x6c, 0x7b, 0x7b, 0x8b,
  0x4b, 0x90, 0x9b, 0x84, 0x90, 0x7b, 0x82, 0x9a, 0x7f, 0x92, 0x90, 0x8b,
  0x9e, 0x8d, 0x84, 0x97, 0x79, 0x93, 0x73, 0x84, 0x78, 0x76, 0x70, 0x75,
  0x84, 0x7f, 0x6c, 0x70, 0x67, 0x78, 0x75, 0x8e, 0x62, 0x84, 0x90, 0x77,
  0x8d, 0x78, 0x93, 0x6b, 0x87, 0x6f, 0x90, 0x61, 0x8c, 0x88, 0x7d, 0x70,
  0x7e, 0x70, 0x6e, 0x63, 0x84, 0x7b, 0x2a, 0x7e, 0x97, 0x71, 0x65, 0x78,
  0x51, 0x64, 0x79, 0x87, 0x3a, 0x71, 0x62, 0x79, 0x60, 0x6a, 0x58, 0x63,
  0x7a, 0x6e, 0x83, 0x64, 0x98, 0x65, 0x88, 0x74, 0x80, 0x75, 0x79, 0x5b,
  0x76, 0x6e, 0x81, 0x75, 0xa4, 0x87, 0x72, 0x74, 0x5f, 0x5f, 0x68, 0x62,
  0x62, 0x83, 0x6a, 0x7d, 0x75, 0x8d, 0x56, 0x6b, 0x93, 0x7b, 0x73, 0x81,
  0xb8, 0x5f, 0x82, 0x72, 0x65, 0x6f, 0x7c, 0x84, 0x7b, 0x6d, 0x9b, 0x84,
  0x9d, 0x89, 0x89, 0x83, 0x72, 0x6a, 0x77, 0x8c, 0x56, 0x8e, 0x71, 0x8b,
  0x98, 0x7f, 0x68, 0x91, 0x95, 0x84, 0x64, 0x96, 0x93, 0x7a, 0x4f, 0x6c,
  0x78, 0x7e, 0x77, 0x8a, 0x7d, 0x89, 0x6a, 0x80, 0x55, 0x8e, 0x92, 0x86,
  0x86, 0x8b, 0x79, 0x89, 0x56, 0x95, 0x92, 0x82, 0x95, 0x6e, 0x84, 0x78,
  0x90, 0x86, 0x7b, 0x95, 0x8f, 0x78, 0x97, 0xb0, 0x9e, 0x9d, 0x76, 0x95,
  0x8a, 0x77, 0x91, 0x75, 0x86, 0x98, 0x7a, 0x7d, 0x82, 0x9a, 0x8a, 0x7e,
  0x70, 0x8a, 0x82, 0x92, 0x92, 0x7d, 0x81, 0x76, 0x8e, 0x78, 0xa2, 0x93,
  0x8f, 0x86, 0x98, 0x8e, 0xa3, 0x83, 0x86, 0x7b, 0x7b, 0x8c, 0x6a, 0x8e,
  0x6a, 0x85, 0x89, 0x6e, 0x89, 0x8b, 0x84, 0x78, 0x56, 0x7d, 0x77, 0x8b,
  0x77, 0x8c, 0x79, 0x77, 0x8f, 0x7f, 0x9c, 0x94, 0x99, 0x7e, 0x8c, 0x89,
  0x86, 0x77, 0x91, 0x79, 0x6a, 0x7e, 0x69, 0x63, 0x75, 0x88, 0x72, 0x78,
  0x74, 0x76, 0x7c, 0x76, 0x5b, 0x88, 0x7d, 0x82, 0x8b, 0x8f, 0x89, 0x77,
  0x85, 0x90, 0x7a, 0x8a, 0xb3, 0x87, 0x85, 0x81, 0x88, 0x7d, 0x88, 0x7b,
  0x70, 0x82, 0x8f, 0x6d, 0x8e, 0x89, 0x7b, 0x76, 0x90, 0x99, 0x7b, 0x6f,
  0x7c, 0x7e, 0x75, 0x91, 0x9a, 0x77, 0x8a, 0x8e, 0x82, 0x9a, 0x68, 0x97,
  0x90, 0x6f, 0x5c, 0x82, 0x93, 0x86, 0x74, 0x83, 0x78, 0x79, 0x7c, 0x76,
  0x85, 0x6e, 0x82, 0x72, 0x4c, 0xac, 0x7e, 0x7c, 0x90, 0x95, 0x74, 0x86,
  0x69, 0x76, 0x90, 0x83, 0x72, 0x60, 0x89, 0x65, 0x78, 0x90, 0x9c, 0x9d,
  0x8a, 0x7f, 0x90, 0x8c, 0x93, 0x7c, 0x7b, 0x7f, 0x69, 0x92, 0x76, 0x8f,
  0x85, 0x90, 0x8b, 0x79, 0x67, 0x88, 0x8b, 0x8a, 0x84, 0x72, 0x7e, 0x86,
  0x75, 0x7c, 0x86, 0x85, 0x5e, 0x89, 0x8f, 0x8d, 0x84, 0x84, 0x82, 0x97,
  0x98, 0x69, 0x72, 0x88, 0x70, 0x89, 0x92, 0x7b, 0x8c, 0x7a, 0x7d, 0x74,
  0x77, 0x98, 0x8b, 0x90, 0x8b, 0x6c, 0x55, 0x7b, 0x6b, 0xa1, 0x62, 0x93,
  0x6a, 0x7d, 0x7a, 0x84, 0x87, 0x7c, 0x7a, 0x88, 0x88, 0x74, 0x62, 0x97,
  0x5b, 0x85, 0x94, 0x8a, 0x8d, 0x84, 0x78, 0x7a, 0x82, 0x74, 0x7b, 0x7c,
  0x8d, 0x6d, 0x76, 0x85, 0x75, 0x9c, 0x74, 0x87, 0x93, 0x7f, 0x60, 0x83,
  0x99, 0x82, 0x6d, 0x9a, 0x9c, 0x74, 0x91, 0x7e, 0x79, 0xa8, 0x6f, 0x8f,
  0xae, 0x7c, 0x72, 0x99, 0x83, 0x66, 0x82, 0x96, 0x79, 0x90, 0x60, 0x7a,
  0x7a, 0x87, 0x63, 0x78, 0x6f, 0x7e, 0x74, 0x99, 0x8c, 0x8a, 0x76, 0x95,
  0x81, 0x6e, 0x68, 0x9e, 0x88, 0x70, 0x5d, 0x6e, 0x66, 0x93, 0x8a, 0x75,
  0x9d, 0x9c, 0x8a, 0x8e, 0x5e, 0x83, 0x99, 0x96, 0x6e, 0x7a, 0x78, 0x88,
  0x81, 0x82, 0xa8, 0xa5, 0x83, 0x7d, 0x72, 0x91, 0x7c, 0x51, 0x53, 0x8e,
  0x89, 0x78, 0x76, 0x73, 0x92, 0xa1, 0x88, 0x80, 0x6f, 0x9d, 0x9d, 0x88,
  0x82, 0x60, 0x77, 0x9e, 0x56, 0x77, 0x95, 0x9a, 0x7d, 0x6d, 0x86, 0x82,
  0x8c, 0x8d, 0x70, 0x8c, 0x87, 0x52, 0x70, 0x8b, 0x83, 0x6d, 0x84, 0x85,
  0xa8, 0x7d, 0xa4, 0x69, 0x81, 0x9a, 0x95, 0x6a, 0x7d, 0x65, 0x4f, 0x8c,
  0x7d, 0x83, 0x95, 0xa5, 0x55, 0x76, 0x90, 0x61, 0x85, 0x83, 0x8b, 0x6f,
  0x84, 0x4a, 0x7b, 0x92, 0x59, 0x7a, 0xa7, 0x9c, 0xa2, 0x61, 0x87, 0x88,
  0x94, 0xa6, 0x9d, 0x7c, 0x9f, 0x79, 0x44, 0x8d, 0x84, 0x8b, 0x95, 0x8f,
  0x7a, 0x76, 0x53, 0x4c, 0x7b, 0x8a, 0x97, 0x84, 0x81, 0x70, 0xaf, 0x69,
  0x7a, 0x9a, 0x78, 0xa0, 0x9b, 0x69, 0x7c, 0xb0, 0x97, 0x7b, 0x7a, 0x84,
  0x85, 0x84, 0x57, 0x81, 0xa7, 0x7c, 0x60, 0x6a, 0x84, 0x71, 0x6e, 0x66,
  0x70, 0xb2, 0x72, 0x91, 0x83, 0x88, 0x55, 0x92, 0xa2, 0x47, 0x58, 0x87,
  0x66, 0x99, 0x6e, 0x71, 0x85, 0xac, 0xa5, 0x93, 0x54, 0x89, 0xa9, 0x6e,
  0x65, 0x6f, 0x7a, 0x7b, 0x92, 0x7c, 0x9f, 0x8d, 0x98, 0x6e, 0x8b, 0x93,
  0x89, 0x6c, 0x4a, 0x8a, 0x8e, 0x72, 0x65, 0x7f, 0x73, 0xa3, 0x85, 0x68,
  0x69, 0x8f, 0x96, 0x7b, 0x51, 0x62, 0x97, 0x91, 0x7c, 0x78, 0xab, 0x8e,
  0x96, 0x63, 0xa7, 0x74, 0x84, 0x8e, 0x74, 0x7c, 0x91, 0x7a, 0x5e, 0x81,
  0x78, 0x6f, 0xa3, 0x73, 0xb0, 0x9a, 0xa7, 0x74, 0x6e, 0x94, 0x89, 0x6b,
  0x7b, 0x4d, 0x84, 0x94, 0xc0, 0x76, 0x99, 0x9c, 0x9b, 0x6c, 0xaa, 0x70,
  0x77, 0xa3, 0x69, 0x8b, 0x8d, 0x82, 0x6e, 0x9d, 0x79, 0x98, 0x9e, 0x7f,
  0xab, 0x60, 0xae, 0x71, 0x75, 0xb7, 0x9b, 0x55, 0x98, 0x7f, 0x6a, 0x98,
  0x65, 0x84, 0x65, 0x95, 0x67, 0x7b, 0x60, 0x50, 0x6b, 0x9b, 0x68, 0x96,
  0x69, 0x69, 0xa8, 0x6a, 0x94, 0x9a, 0x4d, 0x79, 0x86, 0x47, 0x52, 0x7d,
  0x9f, 0x83, 0x67, 0x6f, 0x84, 0x8d, 0x56, 0x7d, 0xc6, 0x77, 0x51, 0x77,
  0x9d, 0x62, 0x80, 0x5f, 0x66, 0xc4, 0x59, 0x7f, 0x53, 0x9a, 0x71, 0x8b,
  0x73, 0x75, 0x5e, 0x81, 0x93, 0x86, 0x65, 0x81, 0x73, 0x87, 0x94, 0x84,
  0x66, 0x6b, 0x86, 0x49, 0xaa, 0x91, 0x6f, 0x6e, 0x98, 0x4a, 0x67, 0xb4,
  0xa8, 0x75, 0x86, 0x5c, 0x6c, 0xaa, 0x7b, 0xa8, 0x79, 0x90, 0x85, 0x87,
